</w>
00
01
02
03
04
05
06
07
08
09
0a
0b
0c
0d
0e
0f
10
11
12
13
14
15
16
17
18
19
1a
1b
1c
1d
1e
1f
20
21
22
23
24
25
26
27
28
29
2a
2b
2c
2d
2e
2f
30
31
32
33
34
35
36
37
38
39
3a
3b
3c
3d
3e
3f
40
41
42
43
44
45
46
47
48
49
4a
4b
4c
4d
4e
4f
50
51
52
53
54
55
56
57
58
59
5a
5b
5c
5d
5e
5f
60
61
62
63
64
65
66
67
68
69
6a
6b
6c
6d
6e
6f
70
71
72
73
74
75
76
77
78
79
7a
7b
7c
7d
7e
7f
80
81
82
83
84
85
86
87
88
89
8a
8b
8c
8d
8e
8f
90
91
92
93
94
95
96
97
98
99
9a
9b
9c
9d
9e
9f
a0
a1
a2
a3
a4
a5
a6
a7
a8
a9
aa
ab
ac
ad
ae
af
b0
b1
b2
b3
b4
b5
b6
b7
b8
b9
ba
bb
bc
bd
be
bf
c0
c1
c2
c3
c4
c5
c6
c7
c8
c9
ca
cb
cc
cd
ce
cf
d0
d1
d2
d3
d4
d5
d6
d7
d8
d9
da
db
dc
dd
de
df
e0
e1
e2
e3
e4
e5
e6
e7
e8
e9
ea
eb
ec
ed
ee
ef
f0
f1
f2
f3
f4
f5
f6
f7
f8
f9
fa
fb
fc
fd
fe
ff
65</w>
73</w>
6e</w>
7468
64</w>
6572
0a</w>
74</w>
616e
696e
2c</w>
746865</w>
79</w>
6f72
2e</w>
6172
616c
6564</w>
7469
656e
61</w>
6f</w>
6f66
6f6e
6f66</w>
6572</w>
6f6e</w>
616e64</w>
7265
696e</w>
67</w>
6573</w>
7374
6963
6f75
696e67</w>
6174
6173</w>
6f6d
746f</w>
656c
696c
616c</w>
616e</w>
6974
6368
6973</w>
6f6c
6973
616d
6f72</w>
2d</w>
6865</w>
29</w>
28</w>
7572
3139
6173
7468</w>
617469
6163
6573
22</w>
6563
726f
6174</w>
6972
656e</w>
656d
7269
776173</w>
3230
6c</w>
546865</w>
706c
6164
68</w>
6b</w>
6f77
7369
756e
27</w>
6167
6c79</w>
6469
656e74
7573
657273</w>
656e74</w>
7769
7c</w>
7768
6574
6967
666f72</w>
6279</w>
e280
6c65
6d</w>
6f70
6170
6174696f6e</w>
6f6d</w>
7665</w>
30</w>
6162
6f73
756c
77697468</w>
6672
6f756e
6576
31</w>
6f63
6c69
93</w>
e28093</w>
6f76
6365</w>
6c65</w>
636f6e
32</w>
6172</w>
666f72
3a</w>
6f74
66726f6d</w>
7472
6368</w>
6869
74696f6e</w>
636f6d
35</w>
6861
33</w>
6179
323030
657265</w>
34</w>
6179</w>
70</w>
686973</w>
7375
6f6e73</w>
6578
74686174</w>
746572
6275
36</w>
70726f
6577
697479</w>
69</w>
636c
37</w>
6963</w>
6964
7473</w>
38</w>
726573
6976
6570
6265
617465</w>
737472
5374
7563
6564
696e67
6566
4368
6f7572
6772
746572</w>
756d
6974</w>
7370
61696e
746564</w>
616c6c</w>
696d
7374</w>
61746564</w>
7175
656172
616b
39</w>
6176
496e</w>
6473</w>
746963
746865
7365
74686572</w>
617279</w>
617265</w>
7564
6961</w>
626572</w>
6f6f
7562
656c</w>
706572
736f</w>
7368
726563
6f6e616c</w>
41</w>
657374
323031
6972</w>
556e
6577</w>
6765</w>
696368</w>
616d65</w>
6561
6b73</w>
496e
7072
706172
616d</w>
657374</w>
696768
696573</w>
6166
5468
616e64
313939
616c6c
656e63
3138
6f64
6574</w>
77657265</w>
6f6e65</w>
6f74</w>
616c736f</w>
7768696368</w>
696e65</w>
6d6572
6c64</w>
66</w>
616765</w>
706f72
69616e</w>
7573</w>
706c6179
776f72
616c6c79</w>
6f67
72616e
617264</w>
736572
697374
6177
7574
4865</w>
666972
697368
6265</w>
6f776e</w>
6d616e
696f6e</w>
6f7567
657273
6f77</w>
646572</w>
697473</w>
747572
4172
656e7473</w>
6f6c</w>
6d656e74</w>
706c65</w>
6f7574</w>
7565</w>
6f6e67</w>
4d6172
74696d
416c
696c</w>
7765
61696e</w>
6f6c6c
7465
696c6c
6f62
656e64
686164</w>
6963616e</w>
3b</w>
6175
313938
7065
7465726e
686173</w>
7479</w>
666963
706f
416e
656d626572</w>
6669727374</w>
697368</w>
6465</w>
647563
6f7279</w>
416d6572
617374</w>
6567
6579</w>
666f726d
6c616e64</w>
6174696f6e73</w>
6174696f6e616c</w>
656e636573</w>
7477
49</w>
63686f
53</w>
69616c</w>
6f756e64</w>
6c696e
697374</w>
7365</w>
43</w>
656e6365</w>
617373
4974</w>
627574</w>
61636b</w>
7363
69746564</w>
6f7374</w>
6f6d65</w>
6f7265</w>
313937
6669
2f</w>
61746573</w>
7468656972</w>
6272
63656e74
6f74686572</w>
697469
656c6c
617474
657373</w>
616e67
77686f</w>
6e6f74</w>
617374
456e
6963616c</w>
416d65726963616e</w>
6572656e636573</w>
697465</w>
686572</w>
626f
6964</w>
526566
6f766572
656172</w>
616e74</w>
6164</w>
78</w>
436f6d
75626c
616c73</w>
4578
636c7564
656c6c</w>
6970
736563
626563
61746572</w>
6f7573</w>
5265666572656e636573</w>
4175
6f706c65</w>
636f6d6d
697a
6f756768</w>
646973
3d</w>
707265
736f6e</w>
696365</w>
616d70
313936
65726e</w>
616365</w>
66696c
7261
756d</w>
617265
696e636c7564
736869
6d616e</w>
6d696e
74776f</w>
616e73</w>
64696e67</w>
68617665</w>
7068
636f6d70
436f6e
766572
74686973</w>
6d65
3030</w>
726565</w>
6e6564</w>
506172
7570</w>
74696e67</w>
666c
4e6577</w>
636f6e74
616465</w>
73657276
61626c65</w>
61736564</w>
626f72
6d6172
73696f6e</w>
6f756c64</w>
657365</w>
656d</w>
6f7572</w>
726974
6c6f63
70726573
746f6e</w>
6572616c</w>
6768
646573
7572696e67</w>
63686f6f6c</w>
75</w>
616368
696e63
74696f6e73</w>
657373
66696e
62616c6c</w>
6265656e</w>
4c65
74696d65</w>
7669
6d73</w>
69676874</w>
696e6773</w>
6b6e
6f6f74
757265</w>
616e6e
746974
666572
616e6365</w>
6f7273</w>
656c79</w>
616e63
5368
6b65</w>
6976657273
6166746572</w>
696c65</w>
6973686564</w>
6f68
726567
646572
757279</w>
313934
313935
696c6c</w>
6f766572</w>
7379
556e69746564</w>
65617273</w>
6472
656e7469
757374</w>
4e6f72
696e746f</w>
74686579</w>
617373</w>
436f6c
646564</w>
616e79</w>
6d6f6e
626c
6f6e67
617365</w>
706f6c
7265</w>
6f757468</w>
7465726e616c</w>
6976657273697479</w>
6973696f6e</w>
73706563
6775
616d6573</w>
656c6563
61696c
7570
617468
766964
576f72
656c64</w>
776179</w>
726573</w>
636f
5365
5768
726f77
75736564</w>
436f756e
67656e
6f6c6f67
61636b
7279</w>
7465</w>
696e6e
456e67
6f6c64</w>
696e64
72656d
6c696e6b73</w>
746873</w>
616c65</w>
637265
626572
6f79
61736f6e</w>
427269
6f70</w>
6c6573</w>
706c6179657273</w>
69676e</w>
70656f706c65</w>
45787465726e616c</w>
6f6369
65766572</w>
757365</w>
6275696c
4163
617a
6465
436172
6f6f64</w>
75617279</w>
556e6976657273697479</w>
636f756e
616b65</w>
626574
44</w>
436c
696c79</w>
6665</w>
6f6e6c79</w>
7073</w>
70726f647563
746963</w>
656e67
617070
6d6f7265</w>
7075626c
746f72</w>
6f73</w>
6f6f6b</w>
4469
656d656e74</w>
6f6e64</w>
6f7365</w>
5363
746973
696e6365</w>
7768656e</w>
696c6c69
616972
4c69
636f6c
746976
4772
313933
7a</w>
c3a9
6865
637269
616a
67726170
746872
73686970</w>
5370
4a6f68
746f
6665
6965</w>
737562
61626c
7965617273</w>
6d6f7374</w>
74697665</w>
54686973</w>
4672
736865</w>
626f726e</w>
696f</w>
656e64</w>
63686172
696e746572
7768657265</w>
726976
7765656e</w>
466f72
79656172</w>
72656c
6d7573
6e65</w>
50726f
63656e74757279</w>
776f756c64</w>
3230</w>
61726473</w>
647572696e67</w>
61677565</w>
4f6e</w>
656d62
646563
616c6275
666f6f74
72656c65
6b6e6f776e</w>
6e6577</w>
506c
537461746573</w>
6974696573</w>
5472
5072
77726974
736964
6174697665</w>
736c
6f6c6c6f77
736967
757272
6174696e67</w>
6d616e79</w>
68696d</w>
656e6e
3130</w>
6265747765656e</w>
696768</w>
61626f7574</w>
666163
43616e
7468726565</w>
74656e</w>
7374727563
7374726963
6f7267
636f72
736561736f6e</w>
63</w>
26</w>
63616e</w>
626972
6c6172
25</w>
74757265</w>
6b696e67</w>
426c
4c</w>
5068
4272
4166
73696e67
4672616e
52</w>
476572
616c69
65737461626c
6c61746572</w>
796d
3073</w>
477265
656374</w>
7265636f72
6f70756c
7468656e</w>
6e616d
66616d
736b
3137
736576
576f726c64</w>
706f73
6772617068
666f7265</w>
50</w>
657279</w>
7472616e
6e756d
6f7665726e
696373</w>
7373
70617274</w>
616e74
6f66666963
6f757365</w>
6b6564</w>
696e61</w>
7567
646576
776f726b</w>
617269
77656c6c</w>
697265</w>
6d616465</w>
696e74
6f7573
496e6469
6177</w>
646566
7562</w>
617973</w>
747269
4d</w>
72</w>
6168
656164</w>
46</w>
74697368</w>
7465616d</w>
6469726563
436f6d6d
73746172
6f6e64
7970
5363686f6f6c</w>
696f6e
596f72
4a756e
6c6579</w>
73756368</w>
4e6174696f6e616c</w>
94</w>
4d7573
66696c6d</w>
696368
6f756768
4164
666f6c6c6f77
73696465</w>
75616c</w>
6e6f72
3139</w>
6f706572
e28094</w>
736d
32303037</w>
4765
6e65
6f7274</w>
696361</w>
42</w>
7468616e</w>
626563616d65</w>
696e76
313932
756e646572</w>
4f72
48697374
32303036</w>
4a75
706f70756c
56</w>
6372
506f6c
6265696e67</w>
73697374
617274
706f7274</w>
3132</w>
6f776e
6f7570</w>
626c65</w>
636f6d706c
626567
636172
75726573</w>
73746f72
696e636c7564696e67</w>
706f696e
62</w>
657473</w>
656c73</w>
6d6174
7468726f756768</w>
6d6f76
6f6772617068
4a616e
4a6f686e</w>
656c6f70
6f7374
69746963
4175737472
737570
4f63
736f6d65</w>
636170
736572696573</w>
55</w>
73746974
596f726b</w>
54</w>
62726f
6f776572</w>
4775
6e616d65</w>
466c
7468657265</w>
436f756e7479</w>
74696c</w>
647265
646179</w>
696e73</w>
426172
65616e</w>
657074
486172
7768696c65</w>
6d696c
737472696374</w>
6d79</w>
616368</w>
627572
7365636f6e64</w>
676874</w>
4175737472616c
656272
6e6f</w>
737572
7363686f6f6c</w>
6674</w>
69636b</w>
61696e7374</w>
72657373</w>
4e6f76
706c61796564</w>
646561
6f726967
6f7274
6265666f7265</w>
5265
6c6564</w>
616374
4166746572</w>
7574</w>
6c696e65</w>
5175
656c6576
616761696e7374</w>
77697468
616d73</w>
63616c6c
6f7765766572</w>
6f7665</w>
646570
756e74696c</w>
616c62756d</w>
536f757468</w>
45</w>
6172656572</w>
616363
536572
42726974697368</w>
446563
73747269
616e6473</w>
7465726e6174696f6e616c</w>
7374617465</w>
6e696e67</w>
4f</w>
69636b
303030</w>
3131</w>
3135</w>
697365</w>
4c6561677565</w>
43656e74
77617264</w>
656e73
61696e6564</w>
43616e6164
7572</w>
616e61</w>
456c
4d6179</w>
707269
7468656d</w>
4949</w>
4d6f6e
626f7468</w>
3231</w>
766973
73656c
676f
69737473</w>
6d6572</w>
6f6363
5065
576172</w>
77</w>
656e746c79</w>
536865</w>
456e676c
526f
526563
636c617373</w>
726564</w>
6561726c79</w>
53657074
456e676c697368</w>
736f6c
73746f7279</w>
74616c
766564</w>
617368
53657074656d626572</w>
3136
436f72
61726561</w>
6c656765</w>
72656c6561736564</w>
706c6163
457572
66616d696c79</w>
4a756e65</w>
756e6963
43697479</w>
646966
636f6e7472
677265
74696c
6f6c6f6779</w>
4b</w>
617665</w>
616e7473</w>
6f6b
756c</w>
616c697479</w>
666f726d6572</w>
656b</w>
6178
4d61726368</w>
766573</w>
67616d65</w>
656e646564</w>
417567
636572
6e6f74
746865726e</w>
626173
73747564
61696e73</w>
6363
4a756c79</w>
6261736564</w>
73697465</w>
6f726967696e
43686172
416d
6d6f64
536565</w>
756469
6e756d626572</w>
76696e67</w>
4d616e
6966
646576656c6f70
6d656e</w>
6d6973
6c696665</w>
666f7572</w>
417072
417567757374</w>
6c6567
62656c
746f626572</w>
4f63746f626572</w>
697468</w>
3134</w>
627269
4a616e75617279</w>
706f7369
656e73</w>
6269
747279</w>
776f6e</w>
636573</w>
6261636b</w>
3232</w>
61676573</w>
4973
32303038</w>
65726564</w>
417072696c</w>
6f75</w>
4269
6e69
75616c6c79</w>
4173</w>
756e</w>
636f6e74696e
70726f66
6661
6d6179</w>
70657269
6f64</w>
69736d</w>
726f73
706f6c69746963
74686f756768</w>
726973
3136</w>
6e6572</w>
616964</w>
63616c6c6564</w>
617264
3138</w>
3133</w>
32303035</w>
666f6f7462616c6c</w>
73756363
313930
6f7665726e6d656e74</w>
66656174
74696573</w>
4f6c
75726368</w>
656d62657273</w>
6d65</w>
7461696e</w>
6f7574
65616368</w>
666f726d</w>
72657370
47656e
6669656c64</w>
526570
62616e64</w>
5374617465</w>
4265
616d70696f6e
7265747572
73797374
6a6f
736574</w>
526567
6f7267616e
6e6f77</w>
446563656d626572</w>
6f6d656e</w>
6368696c
706f7274
4e6f76656d626572</w>
696b
617070656172
3135
6f7468
61757365</w>
4e6f727468</w>
657870
486973746f7279</w>
7365766572616c</w>
6d656e7473</w>
74656e
657479</w>
76617269
65737461626c6973686564</w>
4a6170
656c65766973696f6e</w>
69766564</w>
636172656572</w>
54686579</w>
706572</w>
3137</w>
746f72
72656365
6f6d696e
4575726f70
636f</w>
7265736964
626972746873</w>
73616d65</w>
526f62
32303034</w>
76656e
3330</w>
65737369
426f
706c616365</w>
6f6c65</w>
696d</w>
4865
70726f6772
6f636b
666f6c6c6f77696e67</w>
417373
4d65
697a6564</w>
726566
63756c
616b696e67</w>
4564
616374</w>
5374</w>
6563746564</w>
79696e67</w>
726574
6c656674</w>
646f
636f6c6c
73746174696f6e</w>
4d63
657874</w>
32303039</w>
6e616d6564</w>
7973
486973</w>
666f756e64</w>
32303130</w>
6f6666</w>
72657175
666f756e
6c6f6361746564</w>
6976696e67</w>
7469</w>
6c656164
73696e6365</w>
313839
5375
4d696e
757465</w>
656f</w>
3233</w>
506572
5377
6d75736963</w>
6c6576
696e6564</w>
62616c6c
57696c6c69
737473</w>
7468657365</w>
657474
6578</w>
4e</w>
61696e696e67</w>
68696768
61727469
63697479</w>
426572
67616d6573</w>
616a6f72</w>
77696c6c</w>
616c69676e</w>
646974696f6e</w>
68696768</w>
656374696f6e</w>
646765</w>
6f6c73</w>
67726f7570</w>
5465
46656272
66696c6d73</w>
656e6564</w>
4665627275617279</w>
726573756c
6f677261706879</w>
696c697479</w>
746f776e</w>
6974616c</w>
73656c66</w>
696e67746f6e</w>
6f7773</w>
736572766564</w>
6168</w>
c3a1
656e6368</w>
23</w>
527573
657773</w>
627265
616e6775
666f7264</w>
6d616e6167
666f726d6564</w>
616e67</w>
736f6e67</w>
616c6573</w>
696f6e73</w>
76696c6c
70726f766964
32303131</w>
73706563696573</w>
706c6179</w>
46696c
7269676874</w>
636f6d6d756e
74686572
72616c</w>
796e
32303033</w>
69737472
697264</w>
6b65
446176
756e63
756c6172</w>
626567616e</w>
436f6c6c656765</w>
436f
6c696b65</w>
69616e73</w>
3235</w>
32303030</w>
6275696c74</w>
796d70
526f6d
456d
696e6573</w>
6e73</w>
796c65</w>
697474
61726368
64696564</w>
6d6564
70726573656e74
696e65
737065
42726f
73697665</w>
526976
736368
6d656469
32303032</w>
507269
616972</w>
6d656d626572</w>
73756d
68656c
5765
656d73</w>
6566</w>
67726f756e64</w>
7a65</w>
61746f72</w>
416672
5468657265</w>
74696f6e616c</w>
6f75676874</w>
47</w>
726f7373</w>
32303031</w>
4672656e6368</w>
3130
676c
636f6d706c6574
636f6e74696e75
6d656d62657273</w>
63686573</w>
4174</w>
636f7572
756e69636970
636564</w>
4275
66756c
616d6d
536563
74696373</w>
61726c79</w>
57657374</w>
636c7562</w>
4974616c
617473</w>
65637473</w>
4e65
617274</w>
686f6d65</w>
6164656d
706c61796572</w>
6f636b</w>
706f70756c6174696f6e</w>
53636f74
696465</w>
4f6c796d70
73696e676c65</w>
736f75
313838
696f72</w>
6f63696174696f6e</w>
616e65</w>
4c6f6e64
6e6961</w>
69756d</w>
6f6e6f6d
7665
486f7765766572</w>
7075626c6973686564</w>
526573
6368616e
636f6d70616e79</w>
65647563
6f7264
646573637269
706172746963
536368
626564</w>
63757272
66756c</w>
766572</w>
99</w>
72756e
546865
4c6f6e646f6e</w>
486572
4f66
616d61</w>
64656d
436f6d70
4765726d616e</w>
32303132</w>
68656c64</w>
737465
627573
6f6465</w>
3530</w>
6974617279</w>
7574696f6e</w>
7369616e</w>
746f6f6b</w>
6c6f6e67</w>
617461</w>
437570</w>
6472656e</w>
61726f756e64</w>
50656f706c65</w>
6c696d
617070726f
646964</w>
63616e
3234</w>
6a656374</w>
506574
69636573</w>
616674</w>
4a</w>
6f6e79</w>
756e646572
707572
656d70
676f7665726e6d656e74</w>
476c
6465736967
6475
676572</w>
6165</w>
6f6e6773</w>
696c6c65</w>
64656e</w>
65737465726e</w>
61757468
617273</w>
69736564</w>
6d6574
68616c
74656c65766973696f6e</w>
6174757265</w>
72696564</w>
647565</w>
656e74616c</w>
616c6f6e67</w>
496e7465726e6174696f6e616c</w>
6174696f6e
4e6f74
616b</w>
317374</w>
7368697073</w>
74696d6573</w>
69726564</w>
796c
66696564</w>
7261</w>
e28099</w>
6e6579</w>
6f6666
4d6f72
646f776e</w>
6c616e6775
6c6f63616c</w>
416c6c</w>
6b6572</w>
6169</w>
73797374656d</w>
747265
66696e616c</w>
6164696f</w>
646574
717565</w>
4e6f</w>
77657374</w>
6b61</w>
4972
626f6f6b</w>
70617373
4174
6174656c79</w>
747970
57</w>
736d616c6c</w>
646966666572
5068696c
636f756c64</w>
6561726368</w>
486f757365</w>
70726f63
686973746f7279</w>
7075626c6963</w>
66697665</w>
62616e
656e6379</w>
706564</w>
313836
48696768</w>
74696f6e
7374756469
72656164
4368616d70696f6e
61746963</w>
63686e
24</w>
48</w>
43616c69
32303133</w>
6973746572</w>
646f</w>
6c61726765</w>
74696c6c</w>
76657279</w>
4372
31393939</w>
447572696e67</w>
7369676e6564</w>
766f63
70726f6d
4d6564
72656574</w>
70657273
656c6563746564</w>
706f736974696f6e</w>
6f6f6e</w>
456e676c616e64</w>
43616c69666f72
6572696e67</w>
63656e746572</w>
6f6d65
697665</w>
736961</w>
21</w>
446976
3134
766f6c
43616c69666f726e6961</w>
6666
776f726c64</w>
696e6e696e67</w>
6f726564</w>
313837
6275696c64696e67</w>
7761746572</w>
32303134</w>
6e6f76
5265636f72
7374616e64
68616d</w>
776f6d656e</w>
696c6c696f6e</w>
6261636b
657274</w>
736573</w>
57696c
5553</w>
657175
4d696c
696e7374
61726d
686f757365</w>
696e636c756465</w>
446573
42656c
7374796c65</w>
62656361757365</w>
67726164
6d75
657267
69737375
4175737472616c6961</w>
5456</w>
67656e6572
6465726564</w>
6469737472696374</w>
7972
696f7573</w>
656666
4c697374</w>
7468697264</w>
3133
6c617374</w>
446570
6465617468</w>
7265636569766564</w>
73686f77</w>
686970</w>
6c6f
676976
686f6c
77696e</w>
77697468696e</w>
76657273696f6e</w>
696e636c75646564</w>
6f6e6e
746963616c</w>
6172746d656e74</w>
4f6e65</w>
5061726b</w>
7761726473</w>
64696e6773</w>
4472
4465
6c697374
696564</w>
61696c</w>
61636b73</w>
6d756c
7573696e67</w>
68656164</w>
54696d
726f63
616b6573</w>
466f6f74
636f766572
76616c
31393938</w>
7572616c</w>
6f726967696e616c</w>
7265636f7264</w>
636c6f73
43617468
73657175
73656e
6e6174696f6e616c</w>
6b6574
4d616c
76696c6c616765</w>
656d656e7473</w>
4d6973
4162
666f726d6174696f6e</w>
6d69
6163746976
6f7068
636f6e7374727563
706174
7069
6368696c6472656e</w>
61696d
32303135</w>
416e67
6f726765</w>
426173
466f72</w>
636f6e7369
6d6167
6f6f6b73</w>
5269766572</w>
666174686572</w>
63696c</w>
666f6f7462616c6c
726f776e</w>
6174746c65</w>
6e656172</w>
3238</w>
6576656e</w>
667269
75626c6963</w>
6d616c65</w>
c3b3
74726164
616e6f74686572</w>
696e64</w>
6d61696e</w>
4f66666963
6966</w>
697a6174696f6e</w>
5768656e</w>
4175737472616c69616e</w>
73657276696365</w>
4d6963
74726f
3236</w>
69746572
7374696c6c</w>
6469766964
547572
73616964</w>
657874
6368616e67
68756d
6d756e69636970
70726f74
4469737472696374</w>
3237</w>
636570
6170</w>
6f6479</w>
32303136</w>
c3bc
53616e</w>
6d616a6f72</w>
6d61696e
63726561746564</w>
61756768
757374
57696c6c69616d</w>
6962
617261</w>
6f6e6573</w>
c3ad
50616c
706c61636564</w>
4d69
6173746572</w>
776172</w>
766963
6d6f766564</w>
63686f6f6c73</w>
6574686572</w>
726f6164</w>
427572
74656d
636f7264696e67</w>
76696577</w>
676172
656c656374696f6e</w>
70726f6475636564</w>
617572
45617374</w>
43616d
5669
686572
6469</w>
696e657373</w>
536f75
616e6961</w>
6f72646572</w>
636f756e747279</w>
6f75726e
4f6e
7472616e73
726573706f6e
7772697474656e</w>
6869</w>
616c7468</w>
4243</w>
31393937</w>
766972
636861726163
6f6674656e</w>
757274686572</w>
6e6f6e</w>
31393936</w>
616761696e</w>
43616e616461</w>
686973746f72
696464
6c657373</w>
64697374
6e6f727468</w>
696e637265
5379
636f6c6f72</w>
75726564</w>
46696e
4a616d6573</w>
526f79
47656f726765</w>
747261636b</w>
696572</w>
646561746873</w>
7377
436170
696576
54686f6d
4c6976696e67</w>
72657374
5d</w>
6e69</w>
41726d79</w>
43616e616469616e</w>
616e6f</w>
616d62
32307468</w>
676564</w>
74696e</w>
5472616e
6f756e67</w>
6c616e6775616765</w>
526576
65737473</w>
657373696f6e616c</w>
6f75736c79</w>
6c617465</w>
4177617264</w>
77686174</w>
56616c
7973</w>
6c696e67</w>
776f726b73</w>
646f63
61676f</w>
7469746c65</w>
70657469
65756d</w>
63616d70
5b</w>
77656e74</w>
536d
6f6e6564</w>
756573</w>
3239</w>
6f6369657479</w>
62657374</w>
616c697374</w>
65737461626c697368
47656e6572616c</w>
6561</w>
6169
6c6177</w>
7961</w>
32303137</w>
736564</w>
4a6f
74696365</w>
61756e
736369
6c6572</w>
57616c
436875726368</w>
70726573656e74</w>
7368697265</w>
4d75736963</w>
63686564</w>
6f756e64
65706973
67696e
616e6e6f756e
7461</w>
3430</w>
537472656574</w>
646966666572656e74</w>
517565
746f74
746f70</w>
44656d
746172
676f</w>
466c6f72
6f757465</w>
537472
4672616e6365</w>
616e657365</w>
5477
4173736f63696174696f6e</w>
436f7572
6e6563
72656e
646f6d</w>
67756974
4461766964</w>
506f
c3a9</w>
4b696e67</w>
6d696c6c696f6e</w>
7072657669
736f757468</w>
736974
61736573</w>
686f72
706f727473</w>
64656c
31393935</w>
6879
656e7469616c</w>
6f70656e6564</w>
686162
4b696e67
32303138</w>
736565</w>
73747564656e7473</w>
4c6f75
736978</w>
6b696c6c
616374696f6e</w>
52696368
496e646961</w>
446973
74686f7365</w>
616379</w>
616476
73696f6e73</w>
6a757374</w>
4170
5061727479</w>
6d696e69737472
7269</w>
6578616d
53616c
6f6d62
466972
736f6d65
72696275
747572616c</w>
6273697465</w>
617679</w>
6f7073</w>
6578706c
646976
696e697469
7269737469
73686f7274</w>
4a6572
68656164
41726368
616666
31393934</w>
706f72746564</w>
6f7370
73756363657373
76696c6c65</w>
666c75
696e766f6c
72696e67</w>
6570</w>
676573</w>
776172
416d6572696361</w>
6c6f73
656e64696e67</w>
4575726f7065616e</w>
726570726573656e74
6f757273</w>
72756c
7374697475
616c62756d73</w>
726f6c65</w>
4a6f73
666f726d616e
676574</w>
70726f64756374696f6e</w>
5265636f726473</w>
63616d65</w>
6d756368</w>
67657374</w>
706c6f79
436c7562</w>
70726973
61756c</w>
32303139</w>
31393932</w>
676976656e</w>
656e6473</w>
48756e
46726f6d</w>
72697374
68696d
616e646572</w>
706f776572</w>
6d616b65</w>
4d6167
486f6c
636f6d70616e
536369
7061696e
3331</w>
636f6d6d756e697479</w>
566972
4765726d616e79</w>
64656665
616e636573</w>
706572696f64</w>
4469766973696f6e</w>
756c74</w>
43687269737469
6963616c6c79</w>
69636f</w>
6c616e6473</w>
696e74726f
6368616e6765</w>
507265736964
73746172746564</w>
496e6469616e</w>
41636164656d
6d6f
6475636564</w>
666572656e6365</w>
70726f76
6c61</w>
416972</w>
526f79616c</w>
69616c6c79</w>
566572
746c79</w>
53656e
6f6c6963</w>
7369626c65</w>
726f</w>
6f72697479</w>
77617973</w>
766964656f</w>
66756e
6265636f6d65</w>
4d6174
636174
466f6f7462616c6c</w>
67656e6572616c</w>
726f77</w>
696e74</w>
63617374
526f6164</w>
686172
6c6162
686176696e67</w>
756d62
736f6e6773</w>
75736573</w>
4c75
467265
313030</w>
4d6f
416c65
656e74617279</w>
616e697368</w>
6379
73746174
72657475726e6564</w>
61726b</w>
656e696e67</w>
776f6f64</w>
6163686564</w>
4a6170616e657365</w>
c3b6
6765
4669727374</w>
53756d
546572
646573637269626564</w>
31393933</w>
616e696d
73696e67</w>
42616c
737570706f7274</w>
696e7465726e6174696f6e616c</w>
706f696e74</w>
6974746c65</w>
6e657874</w>
57617368
626f617264</w>
6f6e74</w>
696e6f</w>
63686572</w>
6e6577
4a6170616e</w>
437265
6a6f696e6564</w>
5553
7475726573</w>
73746974757465</w>
5468657365</w>
4572
48656e
616d6f6e67</w>
566963
53696e67
6d617272696564</w>
506174
62757267</w>
766172696f7573</w>
5069
73696d696c
646576656c6f706d656e74</w>
5061756c</w>
58</w>
61746f7273</w>
766f
74616b65</w>
74657273</w>
707265736964
6c6561677565</w>
656b
576172
31393931</w>
31393930</w>
6f6369616c</w>
657261</w>
746f7273</w>
657273686970</w>
496d
6c6574
6573746976
636875726368</w>
6967687473</w>
64657273</w>
537465
6b6574</w>
6f6c6f676963616c</w>
313835
746f7572
746f74616c</w>
636f6e74696e756564</w>
656e65</w>
57617368696e67746f6e</w>
42657374</w>
61676564</w>
446576
6c697665</w>
756b
4d6572
64617973</w>
6f6f64
32303230</w>
756d6e69</w>
6361
6d696c6974617279</w>
4d6163
554b</w>
72756e</w>
546578
68616c66</w>
656473</w>
656e7365</w>
526f62657274</w>
6f6372
65617374</w>
67726f75
686f7765766572</w>
7363686f6f6c73</w>
696d706f7274
6e657373</w>
66656d
4d69636861
436f756e63696c</w>
4d6f756e
4576
616e646564</w>
5261696c
556e696f6e</w>
696461</w>
6573746572</w>
57697468</w>
65616c
6562616c6c</w>
7265636f72646564</w>
6c6576656c</w>
43616c
64726f
61766572
6162696c697479</w>
6f62</w>
416972
636865
5361696e
626172
6175</w>
69666963</w>
636f6e73697374
726163
6170706561726564</w>
7474
706f696e746564</w>
686f6e
726567696f6e</w>
4974616c69616e</w>
73657474
4279</w>
646961</w>
4672616e63
6372616674</w>
656c6c73</w>
617368</w>
75737472
426f72
6e61</w>
536b
4d6164
70726163
726f7465</w>
496c
69656e74</w>
706c6179696e67</w>
726f756e64</w>
616e6e6f756e636564</w>
436f6d70616e79</w>
53696d
6172656173</w>
4368616d70696f6e73686970</w>
6f776564</w>
70726f66657373696f6e616c</w>
6f7572636573</w>
706f736564</w>
427261
49736c
666577</w>
6f7669
6d61</w>
706c6573</w>
627269646765</w>
546f72
6565</w>
48616c6c</w>
77726f7465</w>
776f726b6564</w>
706f6c69746963616c</w>
63617374</w>
54686f6d6173</w>
666f756e646564</w>
4f74686572</w>
706572666f726d616e
636f6d706f73
6368696e67</w>
4475
6f6d616e</w>
59656172</w>
777269746572</w>
4669
4d61
66756c6c</w>
6461756768
4e6577
636c61696d
6573746564</w>
636f6d62
766f74
47726f7570</w>
31393839</w>
6e6174
636c617373
7261696c
77656273697465</w>
72616e6765</w>
4d69636861656c</w>
497265
776974686f7574</w>
616e6b</w>
5369
616c69737473</w>
636f6d70657469
6b6d</w>
436869
726973</w>
4b6172
746f7279</w>
656c65637472
616c64</w>
416e</w>
536c
6f676574686572</w>
4d6578
4167
31393838</w>
617574
6b657462616c6c</w>
4b696e67646f6d</w>
45647563
656e64656e74</w>
666572726564</w>
4972656c616e64</w>
737175
6c696e</w>
6c6f7374</w>
6170706c
70726f6772616d</w>
61637175
61766573</w>
74616b
6f6666696369616c</w>
73706f72
67726f757073</w>
617474656d70
526f73
636f70
4c6f72
5072657373</w>
696c6c73</w>
596f75</w>
696f6e616c</w>
53657276
6f76</w>
4465706172746d656e74</w>
697368696e67</w>
6f78</w>
636f616368</w>
66616365</w>
3132
72657469
6c656164</w>
436861726c6573</w>
73696c
62657267</w>
636f6d65</w>
63656e74</w>
626f6479</w>
6d616b696e67</w>
6f7473</w>
507265736964656e74</w>
63656c
696e6a
5465786173</w>
73746572</w>
31393837</w>
6469726563746f72</w>
657068
636f6e73696465726564</w>
5765737465726e</w>
656e746564</w>
736579</w>
506c6179
73746174696f6e73</w>
486973746f72
65737461626c6973686d656e7473</w>
65726e
74726176
63617365</w>
62726f6164
6772616475
4d6574
6d617279</w>
6964646c65</w>
313834
32303231</w>
6976696c</w>
61776179</w>
506f7274
746561
31393834</w>
547269
31393836</w>
656e61</w>
746565</w>
77696665</w>
6172646564</w>
756e64
4166726963616e</w>
6c73</w>
4368696e61</w>
656475636174696f6e</w>
636c6573</w>
7465616d73</w>
536f6369657479</w>
4c6567
536861
75636b
436f757274</w>
4b6f72
636f6d706c65746564</w>
6e6574
70696e67</w>
496e746572
456172
69616c73</w>
43656e746572</w>
4575726f7065</w>
646576656c6f706564</w>
726164696f</w>
64617465</w>
746967
61736f6e73</w>
616e73
9c</w>
7468656d
636861726163746572</w>
73706f7274</w>
65636f6e6f6d
6579
43656e7472616c</w>
70726976
5275737369616e</w>
9d</w>
4772656174</w>
6576656e7473</w>
3f</w>
61626c79</w>
61706572</w>
746563686e
4b6e
31393835</w>
4769
6267
7269766572</w>
6c616e64
6f6e61</w>
6170706f696e746564</w>
436174686f6c6963</w>
636f6d6d6f6e</w>
6e69666963
73746f6e</w>
4c61</w>
6267636f6c6f72</w>
49736c616e64</w>
7275
617661696c
706f70756c6172</w>
697263
53706563
31393830</w>
656375
4643</w>
6c6574</w>
64697363
6d756e69636970616c697479</w>
6c69616d
696e6469766964
736570
6f6973</w>
6d656e
31393833</w>
73696d696c6172</w>
7768697465</w>
72656c65617365</w>
616e69</w>
6f7468657273</w>
4f72646572</w>
61696c6564</w>
686f7573
6f756e6473</w>
77696465</w>
636f6e74726f6c</w>
7365727669636573</w>
476f6c
666f6f7462616c6c657273</w>
636f6d</w>
5370616e697368</w>
6b6579</w>
4163636f7264696e67</w>
656374697665</w>
656d706c6f79
e2809d</w>
6573746976616c</w>
4d656c
6d61746368</w>
48616d
616c756d6e69</w>
416e67656c
706f696e7473</w>
7061727469636970
6964656e7469
3630</w>
636869
65646564</w>
666f726d73</w>
6c69</w>
68656172
6573736f72</w>
656479</w>
417468
486f72
6f636b6579</w>
646963
4f6c796d70696373</w>
61677265
66757274686572</w>
636f6e73
656d6f72
776f726b696e67</w>
636172</w>
6c697374</w>
68696d73656c66</w>
526564</w>
6576656e74
746f676574686572</w>
e2809c</w>
726f636b</w>
31393832</w>
5768696c65</w>
4f70
43686963
6974686572</w>
69646564</w>
61747265</w>
616c74686f756768</w>
4368696e
627573696e657373</w>
426c61636b</w>
6469726563746564</w>
6e64</w>
6465627574</w>
6d6f74686572</w>
6f7065</w>
48696768
31393739</w>
44656c
547265
7265636f67
4561726c79</w>
726f6e</w>
726f79
636f6e737472756374696f6e</w>
6669636174696f6e</w>
617373697374
73747265
766f63616c73</w>
6c656172
69737369
656c6c6f77</w>
7465726d</w>
32303232</w>
50726f66
416672696361</w>
626f6f6b73</w>
416e64
6461756768746572</w>
617a696e65</w>
696d706f7274616e74</w>
616374697665</w>
6265636f6d
696e666c75
746f77
6974746565</w>
74616b656e</w>
6f7461</w>
47616d6573</w>
696e646570
486f6e
64657369676e</w>
6f7567686f7574</w>
617469766573</w>
6974746564</w>
417274</w>
726573756c74</w>
4a6f686e
6974696e67</w>
526f6d616e</w>
5065746572</w>
7472696573</w>
706c616e
776174
6164646974696f6e</w>
7365706172
41636164656d79</w>
436861
617661696c61626c65</w>
616e7469
626c61636b</w>
73656374696f6e</w>
6172696573</w>
31393831</w>
736f6c64</w>
417761726473</w>
6974696f6e</w>
326e64</w>
616666</w>
4d696368
6c6177
617468</w>
63757272656e74</w>
7074696f6e</w>
75656c</w>
72657374</w>
62657274</w>
7765</w>
636f6d70616e696573</w>
6e6f7465</w>
677569746172</w>
6f726967696e616c6c79</w>
5a65616c
70697465</w>
697373696f6e</w>
77726974657273</w>
73796c
42656e
6f6e6365</w>
64657374
707574</w>
72616365</w>
6767
436872697374
737573</w>
6c69746572
6e65766572</w>
636f6e6e
47656f7267
646567
66726565</w>
6461</w>
7265736561726368</w>
7369676e69666963
696e746572</w>
73796e
636f6e636572
4341
646f63756d
657370
496e73746974757465</w>
52656c
6d6f756e
416c6c
6572736f6e</w>
31393736</w>
4c616b65</w>
656e677468</w>
4368696361676f</w>
546f</w>
756d73</w>
53616d
50656e6e
5a65616c616e64</w>
766961</w>
657069736f6465</w>
5768697465</w>
536f6d65</w>
7370656369
466c6f72696461</w>
31393738</w>
6a6f75726e
6c69676874</w>
6f6666696365</w>
416374</w>
6c6f77</w>
616d6564</w>
6c6f6e67
7468696e67</w>
6163726f7373</w>
42756c
436f6d6d756e
796e</w>
4d757365756d</w>
4b65
537570
65646572
686f6d
5361696e74</w>
6d6564</w>
696e6174696f6e</w>
696e636c75646573</w>
707265736964656e74</w>
616c6c73</w>
31393732</w>
636f7665726564</w>
436f6e67
52657075626c6963</w>
41746c
31393734</w>
6c61756e
697070
6973686f70</w>
756174696f6e</w>
6d657263
726f7373
636f6e647563
73706f7274
4d75
76657273
616b6572</w>
62616e</w>
4c6f73</w>
43687269737469616e</w>
6963756c
7669726f6e
6163</w>
59</w>
497473</w>
796f756e67</w>
69636174696f6e</w>
6163746f72</w>
7061727479</w>
7374616765</w>
616c61</w>
48656e7279</w>
4469726563
6f776e6564</w>
6578616d706c65</w>
6b657273</w>
70726f6a656374</w>
46616d
6f70656e</w>
667265
69746f72</w>
706572666f726d6564</w>
6576656e74</w>
52696368617264</w>
4f6c796d706963</w>
70617274
4361726f6c
61746973
696e666f726d6174696f6e</w>
446566
6861626974
65646572616c</w>
4368696e657365</w>
657468</w>
426972
66756e63
3335</w>
56697267696e
53776564
66696e6973686564</w>
7765737465726e</w>
756e67</w>
50726f76
73656d
61626f72
666967
467269
31393737</w>
696e6e6572</w>
53696c
427265
4f7269
686f77</w>
69736c
2b</w>
5374756469
62726f74686572</w>
4772616e64</w>
46696c6d</w>
31393735</w>
436f6c6c
31393730</w>
49737261
6162</w>
616473</w>
656e67696e65
53756d6d6572</w>
6f6d73</w>
70726f706572
72696768
636f6e7472696275
76656c79</w>
646f6e
666f7572
536d697468</w>
4c696665</w>
6d75736963
6f776e73</w>
4c6f7665</w>
6169726372616674</w>
537175
7365656e</w>
6167</w>
6d6f6e746873</w>
72656c6967
61646d696e69737472
7461696e
76696f6c
54776f</w>
56697267696e6961</w>
736576656e</w>
646f6573</w>
7468657273</w>
6173736f6369
6275696c64696e6773</w>
427573
706f77
756273</w>
6f646573</w>
576174
6d6f72
656e73697665</w>
4e6f72746865726e</w>
c3a4
456475636174696f6e</w>
77696e6e696e67</w>
6176696e67</w>
73636f726564</w>
c58d
6b696c6c6564</w>
44656d6f6372
4272617a
61737369
6576657279</w>
6c6976696e67</w>
464c</w>
666f6c6c6f776564</w>
6a65637473</w>
31393733</w>
50657273
72657475726e</w>
6f646179</w>
31393638</w>
61746963
566f6c
737472756374757265</w>
617263686974
696c6974696573</w>
61766572616765</w>
757375616c6c79</w>
666f6c
6665726564</w>
737566
4f706572
44616e
6272617279</w>
73656e74</w>
646f75
6772656174</w>
6861</w>
61737465726e</w>
63726564
6f6e6963</w>
536f7669
476172
706963
6d6f6465726e</w>
6a7564
616e6368
73637269
756465</w>
3332</w>
696e6b</w>
6c617267657374</w>
7369676e
72656c61746564</w>
4641</w>
64656e
657468
61746f7279</w>
74726164697469
61697273</w>
64756374696f6e</w>
626f7572
466f726365</w>
67726f77
636f6d706574
6665617475726573</w>
6261636b67726f756e64</w>
6172726976
71756172
70687973
6d61746572
66697265</w>
53756e
31393731</w>
63616d7061
73686f7773</w>
706c79</w>
536f6c
64657369676e6564</w>
64696e
65726779</w>
5261696c776179</w>
416c6578
656c6c696e67</w>
73686f756c64</w>
4e6f746573</w>
696d656e74</w>
6c696573</w>
6665617475726564</w>
676972
7468726f7567686f7574</w>
4b68
6c6174
656365</w>
616e7461</w>
696e74726f6475636564</w>
74687265
74797065</w>
31397468</w>
756d65</w>
6c656164696e67</w>
70656e
31393639</w>
6365
6c656172</w>
70726f6d6f74
73796c76
656e636564</w>
6c696e6573</w>
736177</w>
636c6f736564</w>
6f77696e67</w>
6178</w>
726f6c
537572
6f73706974616c</w>
617065</w>
706572666f726d616e6365</w>
7375636365737366756c</w>
616461</w>
4d616e</w>
6f7474
4972697368</w>
656c6c61</w>
747261696e696e67</w>
416c74686f756768</w>
796f75</w>
536869
74657874</w>
6576656e7475616c6c79</w>
72656d61696e6564</w>
696473</w>
616e616c
6368616d70696f6e
657373696f6e</w>
73696e676572</w>
666f63
616374657273</w>
6c6973746564</w>
706f7374
3830</w>
7061727473</w>
4173
426179</w>
75746573</w>
736f6369616c</w>
67617665</w>
68656c70</w>
417267
7a61</w>
31393435</w>
6569676e</w>
657870657269
616464
64616d
656374757265</w>
536f76696574</w>
65766572
73637265
537562
676f6f64</w>
53696e6365</w>
756c61</w>
78696d
686f7374
4a6577
476972
73796c76616e6961</w>
61646f</w>
466172
494949</w>
76656e7565</w>
69736f6e</w>
70686f74
616e6e656c</w>
32317374</w>
57616c6573</w>
6e6f6d696e
697573</w>
7269617465</w>
7265706c61636564</w>
6261736b657462616c6c</w>
526164696f</w>
656974686572</w>
646974696f6e616c</w>
6163686573</w>
61626f7665</w>
696e66
31393637</w>
446f6e
726967687473</w>
65726f7573</w>
6d657468
68756d616e</w>
4d656e</w>
706f6c6974696369616e</w>
69636174696f6e73</w>
75676279</w>
666f72636573</w>
70726f63657373</w>
6d757374</w>
616479</w>
4974616c79</w>
6f78
56656e
6569676874</w>
4d6f73
63757272656e746c79</w>
6b72
6e6f76656c</w>
4d617279</w>
7472616e736c
6e69676874</w>
706869
70726f626c
616c6974696573</w>
4d696e6973746572</w>
68696f</w>
536972</w>
6e616d656e74</w>
7370656369616c</w>
576f6d656e</w>
7264</w>
4d6f7374</w>
63657074</w>
73796d
74756e
416e67656c6573</w>
66726f6e74</w>
42726974
73757276
6368616e676564</w>
68756e
31393634</w>
616e746564</w>
69747a
636f6c6c656765</w>
31393636</w>
726f6f6d</w>
6f6e746f</w>
437269
4368696c
73756273657175
73696d
697373
797374
706974
6561726c69
6f72696573</w>
75666163
61636573</w>
61696e65</w>
446179</w>
6f6c61</w>
636c6f7365</w>
41727473</w>
75706f6e</w>
72616e</w>
7072657373</w>
696e766f6c766564</w>
63616d
726164
61727469737473</w>
726f757465</w>
447574
4d6f64
636f757274</w>
646974696f6e73</w>
50656e6e73796c76616e6961</w>
6f6e6e656c</w>
536172
666f726365</w>
6578697374
48696c6c</w>
6965766564</w>
43756c
4e617679</w>
73706972
7375706572
48656c
73706f727473</w>
7374756479</w>
3730</w>
6967616e</w>
657874656e
66656d616c65</w>
7265666572</w>
416e647265
6563746976
446172
5061726973</w>
4d6179
61776172646564</w>
4f68696f</w>
46696c6d73</w>
6f7267</w>
6164646564</w>
337264</w>
646973747269
7265706f72746564</w>
676f616c</w>
6f756c
73746f6e65</w>
706f7374</w>
31393635</w>
4d657869636f</w>
4f6666696369616c</w>
7072696e63
50616e
736962
617574686f72</w>
70726976617465</w>
6469737472696275
50656e
4344</w>
73636f72
6c697a
73686172
73757272
3930</w>
6272616e
353030</w>
7374616e64696e67</w>
4d616a6f72</w>
6965
3333</w>
706572736f6e</w>
56696c6c
5268
616469756d</w>
61707065
6768</w>
6f6f6473</w>
5570
476f7665726e6d656e74</w>
5365636f6e64</w>
676f7665726e
666f75727468</w>
7370616365</w>
6e6f
7574757265</w>
736b69</w>
70726f6475636572</w>
6f63637570
c487
6e65696768
69646573</w>
72756e73</w>
776964
63656e7472616c</w>
706f737369626c65</w>
6f6d61</w>
6f75726365</w>
786564</w>
456c6563
6c69616d656e74</w>
3435</w>
53657276696365</w>
7370656f706c65</w>
697461</w>
4472</w>
726570
537072
6165
5075626c
6578656375
657068</w>
636f6e7472616374</w>
6d65646961</w>
44656e
54726f
4a6577697368</w>
65747465</w>
756c61726c79</w>
696e69</w>
686f6f64</w>
63686172616374657273</w>
697374616e</w>
68696e64</w>
686974</w>
7265636f676e
72656163686564</w>
686962
4d79</w>
64726177
736561736f6e73</w>
616e6b
486572</w>
746865617374</w>
696e73
6c65617374</w>
757368
706f6c696365</w>
756c6c</w>
7572697479</w>
6d7572
61646573</w>
47616c6c
496c6c696e
4361726f6c696e61</w>
64617461</w>
6669656c
6469766973696f6e</w>
666176
5075626c6963</w>
536572696573</w>
6262
3336</w>
6978</w>
706f72617279</w>
546f776e
697468
566963746f72
686963
70726f7669646564</w>
4a6f73657068</w>
6f696c</w>
53746172</w>
6d616e61676572</w>
31393630</w>
6d6967
706c61636573</w>
706c6174
43616d70
53746174696f6e</w>
66756c6c79</w>
61747461636b</w>
64657369676e
6f7267616e697a
3334</w>
4275696c
656e7468</w>
477265656e</w>
726f6e
506f6c69746963
6d756c7469
4c6f756973</w>
496c6c696e6f6973</w>
696361746564</w>
7175616c69
6e6567
536369656e6365</w>
6d697373696f6e</w>
637572
70726576696f7573</w>
436173
7469746c6564</w>
616374696f6e73</w>
546178
7261696c776179</w>
6573746967
507265
65617468</w>
6f6f74</w>
53636f7474697368</w>
65616b</w>
4f6c64</w>
736561</w>
4c6177</w>
6d656e74616c</w>
7374616666</w>
7374617274</w>
3337</w>
7265616479</w>
68616e64
73616c
486177
73696e676c6573</w>
6d6964</w>
6573736573</w>
69766572
48756d
43617374
76616e</w>
636f756e7472696573</w>
75746572</w>
3338</w>
77726974696e67</w>
6f76657273</w>
76696577
6e61747572616c</w>
46616d696c79</w>
706c616e74</w>
44756e
c3a8
7374726f6e67</w>
537061696e</w>
62617365</w>
656368</w>
736f75746865726e</w>
31393633</w>
756e697473</w>
7475726564</w>
6465666561746564</w>
70726576696f75736c79</w>
6e616d6573</w>
746877657374</w>
4d617373
546563686e
546f776e</w>
636f6d6d657263
6d6f64656c</w>
636f6d7065746974696f6e</w>
666966
726573756c7473</w>
756e69
737461746573</w>
756e64</w>
477265656b</w>
65727665</w>
77686f7365</w>
697373</w>
6f6f</w>
63616c
31393632</w>
79616e</w>
62656e
5275
616f</w>
736b79</w>
4c6162
656b73</w>
466573746976616c</w>
636f766572</w>
646965</w>
6465746572
4c6f63
72617465</w>
616e746963</w>
6d61726b6574</w>
7075726368
6d656173
646967
6f756e646564</w>
706f6c6963
6c6966
676f616c73</w>
6e6f72746865726e</w>
31393434</w>
456d70
617274697374</w>
696e7374656164</w>
6c696b
696d70
4d617274696e</w>
747261636b73</w>
666c65
4153
696e6775
6c6f7373</w>
4a61636b
617073</w>
64656369646564</w>
737472756d
617474656e646564</w>
6269727468</w>
64756365</w>
61756469
6e6172
73756363657373</w>
776f7264</w>
627573</w>
726567756c6172</w>
47616c
323030</w>
757479</w>
706c617973</w>
6f67</w>
73686f74</w>
65746572</w>
72656164696e67</w>
636c65</w>
4e45
506163
536f75746865726e</w>
6c6f636b</w>
65617374
646573</w>
726174686572</w>
6672657175
6179696e67</w>
436172656572</w>
616c6d6f7374</w>
4b72
63617264</w>
6163746f7273</w>
4875
636f6e66
4368616d70696f6e7368697073</w>
6d616e75666163
6368696c64</w>
667269656e64</w>
7072696d617279</w>
73747564696f</w>
706f74
436f6c756d62
656573</w>
6f757473696465</w>
64726976
c3b36e</w>
6f7267616e697a6174696f6e</w>
4475746368</w>
7465726d696e
53636f746c616e64</w>
75636b</w>
6f7065726174696f6e73</w>
617070726f78696d
616d69</w>
656e737573</w>
4d61726b</w>
70726f76696465</w>
6e79</w>
54696d6573</w>
62726f75676874</w>
6d6167617a696e65</w>
7061726b</w>
74687573</w>
4c696e65</w>
646567726565</w>
6c69766564</w>
c487</w>
426574
6d75736963616c</w>
63616d706169676e</w>
3339</w>
69646165</w>
6c6567616c</w>
68616e64</w>
426174746c65</w>
6368616d70
72656c6174696f6e
427564
6d61726b</w>
4a7564
726573656e74
31393631</w>
737461746564</w>
737573
466f6c6c6f77
6b69</w>
676f6c64</w>
56616c6c6579</w>
4368616d70
526f757465</w>
616772
66616c6c</w>
347468</w>
646f6e</w>
4a6572736579</w>
6d6574</w>
42726f776e</w>
69736c616e64</w>
73756d6d6572</w>
65646974696f6e</w>
3031</w>
617070656172616e6365</w>
6f6f72</w>
626568696e64</w>
63756c74757265</w>
4c6172
7461696e73</w>
636c61696d6564</w>
6566666f72
4241</w>
616368696e67</w>
72657665
736369656e6365</w>
4c61746572</w>
6964656e6365</w>
4d6f6e74
4d7572
737469747574696f6e</w>
6574696e67</w>
426967</w>
656c6c6564</w>
697a65</w>
6c656e677468</w>
6c6561646572</w>
6c6f636174696f6e</w>
466572
466f6c6c6f77696e67</w>
636f6d706172
756c7479</w>
73756767
6578706572
696e636f72
436f6d6d6974746565</w>
4f78
657a
73797374656d73</w>
656d626c79</w>
69746573</w>
736574746c
4672616e636973
626567696e6e696e67</w>
76</w>
456d70697265</w>
436174
31393539</w>
617761</w>
3735</w>
72756e6e696e67</w>
53706f727473</w>
7368</w>
6f6368
696a
67726573
736f6f6e</w>
76656e74
436f6e6772657373</w>
616c6c6f776564</w>
7469636c65</w>
746f6e
61727469636c6573</w>
6f6573</w>
616262
7765656b</w>
476f7665726e
4d696c6c
527573736961</w>
4c6f7264</w>
736f6d6574696d6573</w>
7669657773</w>
6c6f776572</w>
746572726974
6163636f756e
4d65</w>
63726f7373
6b6c
696e6e657273</w>
646f6d696e
31393538</w>
636865737472
757374696365</w>
50726f76696e6365</w>
656c616e64</w>
77616c
656e7669726f6e
6375
656d616e</w>
61637473</w>
6b6f</w>
74616b696e67</w>
31393536</w>
796572</w>
6b656e</w>
6865616c7468</w>
62757279</w>
697473656c66</w>
696d706c
636f6c6c656374696f6e</w>
4966</w>
776f6d616e</w>
6e65777370
666572</w>
6175676874</w>
617269</w>
32303233</w>
4d696c6974617279</w>
42726f6164
736e
6573706563
426f7374
6f6e64617279</w>
446574
357468</w>
696e646570656e64656e74</w>
6e6574776f726b</w>
4567
54686174</w>
6f7261</w>
696e746572657374</w>
666f6f7462616c6c6572</w>
6c6974746c65</w>
6f70657261746564</w>
7665686963
636f75727365</w>
417267656e74
6368657273</w>
616e736173</w>
31393432</w>
6d616a
6173736f63696174696f6e</w>
77686f6d</w>
6974697a
6964656e74</w>
31393438</w>
6564696e67</w>
4a6f6e6573</w>
69676e
65617365</w>
4c6974746c65</w>
65726f</w>
31393537</w>
566964
636c75
657370656369616c6c79</w>
746f6f</w>
4c7563
6f6b</w>
6f6c7574696f6e</w>
4d696e6e
66696e616e63
61636164656d
7370656e74</w>
696d70726f
6c6965</w>
6261736562616c6c</w>
426563
31393436</w>
736369656e7469
63697263
61756c
64696573</w>
62617474
736f66
416c</w>
426f77
636f6d706c657465</w>
4570
616c6564</w>
657374696d
4d6963686967616e</w>
776569676874</w>
656e74696f6e</w>
4a756c
657863
6f7065726174696f6e</w>
6973746963</w>
5465616d</w>
417573747269
4c6565</w>
4665
616c69736d</w>
57657374
547261636b</w>
63616e63
726574617279</w>
426f73746f6e</w>
726f706f6c
54686561747265</w>
6d6f76656d656e74</w>
54656c65766973696f6e</w>
656173
6d6f74
31393530</w>
31393535</w>
7363686f6c
63686573746572</w>
436f6c756d626961</w>
4879
426c7565</w>
6761</w>
657074</w>
6f6e6f6d79</w>
4d72</w>
636f6e7461696e73</w>
666172
61696c73</w>
72697665</w>
446572
696e6475737472
756974</w>
2a</w>
696e647573747279</w>
7369676e69666963616e74</w>
556c
66696768
4a61636b</w>
5068696c697070
657a</w>
666f72636564</w>
726f6d
616e7468
4649
c481
6973747279</w>
6973737565</w>
7068696c
746f75726e616d656e74</w>
657368</w>
6f6e74
736166
686967686572</w>
5072696e63
6f70656e696e67</w>
6164646974696f6e616c</w>
596f756e67</w>
6d6f6e64</w>
72656d6f76
61646170
536174
5061726c69616d656e74</w>
456477617264</w>
62617373</w>
31393433</w>
436976696c</w>
68696768657374</w>
69746174696f6e</w>
4d6168
7269616765</w>
666172</w>
5072656d
666f726d696e67</w>
47656f72676961</w>
61747472
6163746564</w>
616e7469</w>
756e6974</w>
52656e
6275726768</w>
73697a65</w>
617469</w>
7465656e</w>
6d65616e
71</w>
7265616c</w>
73747564656e74</w>
4561737465726e</w>
426f617264</w>
686f6c64</w>
52616d
736f6c6469
6d696e67</w>
42696c6c</w>
73657276696e67</w>
7461696e6564</w>
3432</w>
72657469726564</w>
63616e6469
446f6e</w>
616c697a6564</w>
746f75
31393532</w>
4f66</w>
6f73746c79</w>
31393437</w>
4e6174
757261</w>
636c756273</w>
31393431</w>
5375706572
54696d65</w>
6c6963
747261646974696f6e616c</w>
696e766573746967
50616b
526570726573656e74
766963746f7279</w>
667574757265</w>
3139383073</w>
506f6c697368</w>
31393339</w>
6e656172
50616369666963</w>
6d65616e73</w>
676f696e67</w>
7072616374696365</w>
6578706174
617070726f78696d6174656c79</w>
61796564</w>
617272616e
6368616e676573</w>
67696e67</w>
6c696d69746564</w>
31393430</w>
70726563
416c6275
696e6768616d</w>
6174696e</w>
4d79
61707065617273</w>
5265736561726368</w>
726174696f6e</w>
546f6d
517565656e</w>
446f63
4d616e79</w>
4379
75616c73</w>
69656c</w>
616e6461</w>
66697368</w>
6273</w>
576f6c
4261736562616c6c</w>
4272697461696e</w>
686f636b6579</w>
746f7761726473</w>
7561</w>
657474</w>
57656c
6164726f6e</w>
696c69616e</w>
6368616d70696f6e73686970</w>
43726f
426f79
506f72
7065</w>
70616c
696e636f72706f72
66696e64</w>
67656e6572616c6c79</w>
657870726573
69766573</w>
637269636b
636f6e7374697475
6973696e67</w>
6571756970
617363
4672616e636973636f</w>
3431</w>
657265
69676874
6d6f73746c79</w>
3535</w>
68657265</w>
7265717569726564</w>
69746368
486973746f726963</w>
63656e747265</w>
3438</w>
6769616e</w>
70696c
5072696e6365</w>
6164656c
4e6574
66616d6f7573</w>
31393534</w>
756e696f6e</w>
53797374
697373756573</w>
4d656d62657273</w>
417269
686f7374</w>
6c6f7665</w>
6365727461696e</w>
747261</w>
696e737472756d
5468656972</w>
6d6f6e6579</w>
4d756c
657474696e67</w>
6d6f7665</w>
71756573
426f6f6b</w>
70616e
66616d696c
6561726c696572</w>
476f64</w>
616e79
3139393073</w>
616c6c6f77</w>
7772
656c61</w>
617070656172616e636573</w>
70726f6772616d73</w>
4176
646f6d
73636f7265</w>
616e6e696e67</w>
61726d79</w>
626174746c65</w>
476f
73656174</w>
65747473</w>
5075
6479</w>
31393533</w>
486f6d65</w>
6163636f7264696e67</w>
61646f70
636f756e7479</w>
4861
746f70
456e67696e65
626573</w>
67616e
6d65726c79</w>
6d617463686573</w>
666f6f64</w>
477269
6368696566</w>
526f636b</w>
617574686f72
62657273</w>
6772616e64
66696374696f6e</w>
636f75
31393531</w>
3434</w>
70726f6772616d6d
6173736f636961746564</w>
737461747573</w>
3139373073</w>
5352</w>
52657075626c
616e636564</w>
7a7a
c5a1
636f6d6d65726369616c</w>
737472756374696f6e</w>
6561737465726e</w>
44656d6f637261746963</w>
637269746963
546f6d</w>
7175617274
6177617264</w>
646f776e
416e6e
726f72</w>
3037</w>
6f6e6961</w>
4e657773</w>
31393439</w>
4a6f75726e
706963616c</w>
6e696e65</w>
6372656469746564</w>
6e756d65726f7573</w>
6d616e6167656d656e74</w>
616363657373</w>
6563746976656c79</w>
73747564696573</w>
72656164</w>
6d6f6e7468</w>
506f6c696365</w>
616d6f756e
7070
6472616d61</w>
6970</w>
7465726564</w>
72656e</w>
756c65</w>
627573696e
746f7572</w>
6f63636173
536576
61637469766974696573</w>
4e6176
70617374</w>
6c61756e63686564</w>
7472616465</w>
46757274686572</w>
50726573
736973746572</w>
3531</w>
4361
3437</w>
696e696e67</w>
726570726573656e746564</w>
41736961</w>
726963</w>
7265636f7264696e67</w>
4c6177
6361</w>
6f6964</w>
6265636f6d696e67</w>
65746572
464d</w>
6d616c</w>
74616b6573</w>
706c616e</w>
3634</w>
67756e</w>
6e6f746564</w>
6361736573</w>
5374616e
63617265</w>
6f666669636572</w>
74656772
72656c6967696f7573</w>
65747279</w>
746174696f6e</w>
656e74697265</w>
73796368
636f6e766572
73747269616c</w>
42617474
6d616368
646966666963
4c696d
54656e6e
4b656e6e
436f6e73657276
6361706974616c</w>
3532</w>
5374657068
4a6f65</w>
70726f62
6d6964
6163687573
486f77
616c7465726e
4361726c
696e646963
696e646976696475616c</w>
446f72
6173696e67</w>
696e6475
706173736564</w>
79617264</w>
50726f74
4672616e6b</w>
4d6173736163687573
43726f7373</w>
5241
4d6f74
4d617373616368757365747473</w>
5572
57696c6c69616d73</w>
54616d
486f6c6c
6c6164
706f7274696e67</w>
616c7265616479</w>
726170
47617264
4c696272617279</w>
c3a7
6f63636572</w>
686f75736573</w>
70616765</w>
636f6d696e67</w>
446576656c6f70
4368696566</w>
3439</w>
636c696d
5765</w>
63656c656272
73656c6563746564</w>
70726f7065727479</w>
776f727468</w>
72656d61696e73</w>
7472656174
456c</w>
6b656570
657374696e67</w>
70706564</w>
4176656e7565</w>
6e657273</w>
73656e696f72</w>
546f7572</w>
747261
66616374</w>
a3</w>
63757374
67656e7573</w>
57726974
3433</w>
77696e67</w>
72696368</w>
4d616e6167
656e67696e65</w>
636175736564</w>
72656d656e74</w>
436f6e666572656e6365</w>
6f6c64
616e6e75616c</w>
696e617279</w>
72696573</w>
4f62
656e7465726564</w>
5468726565</w>
66656174757265</w>
7965</w>
3635</w>
746f646179</w>
7475726e</w>
436f6d6d697373696f6e</w>
416b
4a6f686e736f6e</w>
696d6d656469
4d6964646c65</w>
616e747279</w>
70756e
466f756e64
73747275637475726573</w>
6d616a6f72697479</w>
4646
4d696b65</w>
666c6963
656d61746963
417368
313739
6d6972
424243</w>
7374616e64617264</w>
3035</w>
6164656c706869
67697665</w>
626574746572</w>
7265636f726473</w>
73706c
48656172
6f6b65</w>
7465726d73</w>
62656c6f77</w>
49737261656c</w>
74657374</w>
3038</w>
68617070
6f776c65
506f70756c
50617472
447265
5375706572</w>
546f776e73686970</w>
437265656b</w>
616b61</w>
7261746564</w>
4261
696e63726561736564</w>
5068696c6164656c706869
696761</w>
61636b6564</w>
6f6e73
636f6c6f6e
556b72
53636f7474</w>
666f726d65726c79</w>
696e697469616c6c79</w>
7461626c65</w>
4c616e64
4e69
636f6e76
6666</w>
b0</w>
526f67
76656e74696f6e</w>
434f
6c656176696e67</w>
4c697665</w>
756e6976657273697479</w>
6f74656c</w>
566963746f726961</w>
5068696c6164656c70686961</w>
6368656d
73686f776e</w>
726f6c6c
74696f6e617279</w>
706f6e
74686f75676874</w>
69626c65</w>
73746172</w>
48616c
65636f6e6f6d6963</w>
3032</w>
706572736f6e616c</w>
686973746f726963616c</w>
6963616e73</w>
45636f6e
79736973</w>
657074696f6e</w>
6465636973696f6e</w>
31393336</w>
536f6e6773</w>
3036</w>
4174686c65
4d6964
4c6174696e</w>
636f6d656479</w>
42696f677261706879</w>
61796c
437572
6573736564</w>
726573736573</w>
64657374726f79
6974616e</w>
61746567
73686f7274
4a6573
7261696c</w>
417a
4c6576
726574</w>
65646c79</w>
726567756c
457374
72656c6174696f6e73686970</w>
616e746c79</w>
426174
7475726e6564</w>
62756c
3436</w>
636f6d70696c
537964
656c74</w>
45636f6e6f6d
c3b1
6e6174697665</w>
65787061747269617465</w>
74686573
43656e747265</w>
61696d</w>
6461746573</w>
706572736f6e6e656c</w>
706172656e7473</w>
61646f72</w>
42616e6b</w>
54656d
6c6f6e676572</w>
6d696e6f72</w>
6f736f7068
4a72</w>
6d61696e6c79</w>
626174
6163717569726564</w>
53616e
436f72706f72
746879</w>
706f7365</w>
6d697373696e67</w>
3033</w>
737465696e</w>
666561747572696e67</w>
42616e
4d756e69636970
6e657773</w>
617a7a</w>
3534</w>
6d6174657269616c</w>
696e676572</w>
53616e64
526564
4f6666696365</w>
4e41</w>
70726f76696e6365</w>
426f6c
367468</w>
72656c69
696c73</w>
556e646572</w>
7761
6f66666963657273</w>
656e63696573</w>
6d756c7469706c65</w>
6465616c</w>
696465
4b6972
61696c79</w>
3139363073</w>
536561</w>
427574</w>
4d756e
555341</w>
6262</w>
73656c766573</w>
697373756564</w>
67656e</w>
4f78666f7264</w>
5379646e6579</w>
61736b6564</w>
657572</w>
6561726e6564</w>
5370656369616c</w>
6c6172676572</w>
676f74</w>
7765656b73</w>
656e65726779</w>
6d6564616c</w>
7661</w>
6b79</w>
4865616c7468</w>
636f6e63
73756273657175656e746c79</w>
6f6473</w>
617370
4d50
7265666572726564</w>
6a69</w>
73706f72746174696f6e</w>
4154
746f776e73</w>
416c6578616e646572</w>
31393338</w>
3533</w>
63616c6c</w>
4152
7370656369666963</w>
706172746963756c61726c79</w>
4f6e746172
4672616e6b
44657370697465</w>
72616e74</w>
54616c
616e69616e</w>
636861726163746572
4469726563746f72</w>
496e66
6f746f</w>
7461696e6d656e74</w>
736978
5374657665</w>
3034</w>
6769
77616c6c</w>
6e6174696f6e
4d616c6179
536f6e67</w>
4f6e746172696f</w>
7574656e
49736c616e6473</w>
417369616e</w>
7365706172617465</w>
63686170
52656d
417373656d626c79</w>
466f7274</w>
506963
62726f616463617374</w>
6f756e64696e67</w>
426f6f6b73</w>
3536</w>
7374617274696e67</w>
626f78</w>
7265706f7274</w>
70617373656e67
796f</w>
747261696e</w>
61706f6c
776f726473</w>
4f766572
616b73</w>
3538</w>
4272617a696c</w>
65766964656e6365</w>
6f79</w>
6d696e75746573</w>
6665646572616c</w>
6269726473</w>
656d6f7269616c</w>
3039</w>
636f6d706c6578</w>
437a
377468</w>
a0</w>
626f74</w>
506f6c616e64</w>
616e6765</w>
6465636c6172
746973</w>
696e676c79</w>
5261
6d6f766965</w>
73747269637473</w>
796f756e
73747564696564</w>
7072656d65</w>
31393337</w>
7365727665</w>
537065
3539</w>
53756c
686f757273</w>
6d65646963616c</w>
6170657273</w>
656e7a
637265617465</w>
656469746f72</w>
436572
31393138</w>
466f756e646174696f6e</w>
5a</w>
6f766572616c6c</w>
526567696d656e74</w>
546f70</w>
7370656564</w>
75636b79</w>
48617276
7561746564</w>
6b696e73</w>
70726573656e746564</w>
6d616e6e</w>
707265706172
687474
68656c706564</w>
6f666665726564</w>
6f67726170
656c696e67</w>
63726f7373</w>
64697669646564</w>
756c70
63686573747261</w>
6c697374696e67</w>
687573
53776564697368</w>
67696e</w>
66696e616c73</w>
4953
426f62</w>
62656c6965766564</w>
456e746572
6d6964646c65</w>
696e7374697475
696e736f6e</w>
4a65616e</w>
736d616c6c
616374696e67</w>
47616d65</w>
73757266616365</w>
64657363656e74</w>
7572696573</w>
496e6469616e61</w>
617373697374616e74</w>
72656d61696e696e67</w>
646564
6169726564</w>
74696c6c
6973686573</w>
7567</w>
70726f6d696e
7468657265
706f6f6c</w>
576973
69616e61</w>
67756e
4c61
6f7267616e697a6174696f6e73</w>
696174696f6e</w>
436f727073</w>
48696768776179</w>
4f7267616e
76617269657479</w>
696e656d
4e464c</w>
7175617274657273</w>
666f726d6174</w>
696c6c6564</w>
636976696c</w>
7477617265</w>
636173746c65</w>
31393335</w>
646973637573
4c6f6e67</w>
4d6564616c</w>
636974697a
736f75726365</w>
50726f6772
436f617374</w>
757273</w>
737570706f72746564</w>
706f736974696f6e73</w>
64697374696e63
7361</w>
656e736973</w>
546f726f6e746f</w>
656e7479</w>
4973</w>
31393230</w>
727570
3835</w>
736f756e64</w>
4d6f76
5361
657069736f646573</w>
4d6173
7468656d73656c766573</w>
726169736564</w>
74726f6f7073</w>
636f6d6573</w>
636f7374</w>
74616e
636f6e7374727563746564</w>
446576656c6f706d656e74</w>
6c6573
4e6963
746563686e6f6c6f6779</w>
696c61</w>
6d65616e696e67</w>
63656e737573</w>
6c696b656c79</w>
626f72646572</w>
526574
68616d
6f63657365</w>
616c77617973</w>
73656c6c</w>
7363726970
676572
616c6c6564</w>
6661696c6564</w>
416e6f74686572</w>
56696574
4a616d
706172746963756c6172</w>
53747564
45677970
617468656d61746963
7065726f72</w>
67617269616e</w>
7374616e64</w>
72656e616d6564</w>
4f7574
6d6173746572</w>
566f
41727468
62616e6b</w>
61746976656c79</w>
4265726e
626c69
626f75726e65</w>
70726576
646972656374</w>
6b6e6f776c65
636f6c6c61626f72
656d657267
4d696e6e6573
697261</w>
61727469636c65</w>
61746f</w>
677265656e</w>
53616e7461</w>
636f6d6d756e6974696573</w>
63617374696e67</w>
6669676874</w>
546f7572
427574
6162657468</w>
7072656d69
3537</w>
436f</w>
3935</w>
4b6572
757262616e</w>
3939</w>
657574656e
6d656574696e67</w>
456c65637472
706c616e7473</w>
4d696e6e65736f7461</w>
6368616e6e656c</w>
6772616465</w>
636c69
6f62616c</w>
696c6c79</w>
31393330</w>
6e6561726279</w>
6c6174746572</w>
6a61</w>
61637472657373</w>
656d6963</w>
636f6d706f736564</w>
6f7267616e</w>
52657075626c6963616e</w>
686f6c6473</w>
526f636b
66696e616c6c79</w>
4143
68617264</w>
656d6574
7369746573</w>
616c696f6e</w>
656e74696f6e6564</w>
4a696d</w>
4b616c
656374
546f6b
64656c</w>
616d626967
4d75736c69
416e7468
63617272696564</w>
4f7474
526f64
70726f7669646573</w>
426973686f70</w>
43686170
546861
6465706172746d656e74</w>
74726f706963616c</w>
4c6f
706879</w>
73757265</w>
69736174696f6e</w>
6167696e67</w>
52616a
566964656f</w>
4368726973</w>
676c65</w>
66696e616e6369616c</w>
47616c6c657279</w>
6c656769736c
7375626a656374</w>
616c696e67</w>
6679</w>
6573636170
6875
426f7468</w>
6e656564</w>
7072696f72</w>
6c6f67
4956</w>
6f6363757272
c2a3</w>
6d616b6573</w>
7072696d6172
726579</w>
566973
6974616765</w>
54656c
69736573</w>
64616e6365</w>
4465</w>
3636</w>
636974696573</w>
41727469
657874656e646564</w>
7468656f7279</w>
61646a
6e616d</w>
646f6e65</w>
737570706c
506572736f6e616c</w>
546872
626973686f70</w>
7068</w>
53656c
4e69676874</w>
646f75626c65</w>
656c6c6f</w>
74696e
5469
656d6574657279</w>
636f6e7369737473</w>
6773</w>
796c</w>
696e637265617365</w>
7070</w>
416972706f7274</w>
6361706163
736578</w>
656e646572</w>
696e74656772
4c65</w>
6d61727269616765</w>
41726162
64656c6976
68617669
756265</w>
62616c
7375636365
6f6e7a65</w>
53686572
617961</w>
6163636570
4b6f
6574657273</w>
69746f7273</w>
617474656d7074</w>
736578
31393238</w>
637574</w>
6475</w>
53746172
6d616e75666163747572
6469726563746c79</w>
686f75
4e6f7461626c65</w>
766f696365</w>
536f6d
6368616c6c
6f6e6572</w>
73746f72696573</w>
57696c736f6e</w>
6e65696768626f72
6c6176
6d6f73
64657370697465</w>
6d7573696369616e73</w>
616e6379</w>
736f6369
656d79</w>
74686f64
71756573</w>
456c697a
69726573</w>
53757072656d65</w>
496e646570
696d756d</w>
7472616e73666572726564</w>
436f70
31393139</w>
617070656172</w>
656374696f6e73</w>
726573706f6e7365</w>
747275
706172697368</w>
476f7665726e6f72</w>
6d616e61676564</w>
6d6974746564</w>
6f6d6f
57686974
6e6561726c79</w>
70726f706f736564</w>
61796c6f72</w>
426c61636b
6372696d696e
627265616b</w>
69657665</w>
617264696e67</w>
6865617679</w>
626c6573</w>
6d696e65</w>
417265
31393239</w>
796c616e64</w>
4c79
6f6c6f67697374</w>
4d6972
726563656e74</w>
656666656374</w>
4e6f
766f6e</w>
616c7479</w>
616b657273</w>
707265</w>
4561727468</w>
3732</w>
646f72
31393333</w>
706f6c696379</w>
7961726473</w>
74726565</w>
656c6c6967
64657369676e61746564</w>
5475726b
646f6f72</w>
6379636c
617761726473</w>
4c6577
4265726c696e</w>
486f75
6d6173</w>
31393332</w>
61737369676e6564</w>
657574656e616e74</w>
726573706f6e7369626c65</w>
57696e746572</w>
63686e69
666f726569676e</w>
706c616e73</w>
6e6577737061706572</w>
436f6d6d756e697479</w>
6c65617665</w>
636861726765</w>
6d6d</w>
4253</w>
31393334</w>
4669656c64</w>
636c61737369
73696c766572</w>
7365636f6e64617279</w>
4e6574686572
646973636f7665726564</w>
666963</w>
31393134</w>
426f73
7072696d6172696c79</w>
76616c7565</w>
70726f626c656d73</w>
417274687572</w>
57696e64
706f6c6974696369616e73</w>
73656e</w>
7072696e
73746572
656465726174696f6e</w>
3838</w>
6669667468</w>
466163
646562
4b6f6e67</w>
4341</w>
4c6962
7369</w>
484c</w>
4c616479</w>
66616d696c696573</w>
667269656e6473</w>
4d65646961</w>
506f7374</w>
4661
4c6f756973
7765656b
756e65</w>
5072697a65</w>
666f72657374</w>
6472756d73</w>
666f756e646572</w>
6f65</w>
6c6162656c</w>
4b656c
6f7468696e67</w>
7175616c697479</w>
656c6c65</w>
6f776e6572</w>
726f70
636f6e646974696f6e73</w>
61736869
7469746c6573</w>
4c69626572
6174697374696373</w>
74656d706572
6d656368616e
416c736f</w>
526164
387468</w>
656e746174696f6e</w>
636f6d6d756e6963
61726d73</w>
40</w>
746f6c64</w>
736f72
31393331</w>
68696269
4f70656e</w>
70756c
6c6f6f
61747573</w>
616e6369656e74</w>
73756d6564</w>
42726967
636f6e74656d
6469616e</w>
c58d</w>
70726f666573736f72</w>
3632</w>
537573
6575
546967
4a757374696365</w>
6967</w>
6e6563657373
616c6c6567
5072656d696572</w>
53686f77</w>
726576696577</w>
616c67
656e6f756768</w>
7275676279</w>
696c6c61</w>
69746368</w>
726576
64657465726d696e
3736</w>
43616d627269646765</w>
6167726963756c
6164696e67</w>
6f6e6c696e65</w>
4d6f756e74</w>
31393234</w>
656368
77696e6e6572</w>
656c656374696f6e73</w>
636f756e63696c</w>
6c69766573</w>
726567696f6e616c</w>
43656c
53657262
3131
3839</w>
5374616469756d</w>
d0be
3631</w>
73746f70</w>
70617469
7265736964656e7473</w>
53656d
657865637574697665</w>
6f7474</w>
636c65
6d69676874</w>
657870657269656e6365</w>
4b616e736173</w>
397468</w>
6c6f72
61626c6573</w>
63617273</w>
636f6d6d616e64</w>
6e6f746573</w>
6f62696c65</w>
6e6f76656c73</w>
507572
6e6176
c48d
44756b65</w>
6d6963
656c657373</w>
667572
7265616c
6d656c
476f6c64656e</w>
436c617373
736f6c6469657273</w>
78696e67</w>
69747a</w>
6f7465</w>
67657273</w>
69646561</w>
6265636f6d6573</w>
4a6f75726e616c</w>
6d79
5041</w>
546f6e79</w>
756d70</w>
7363686564
486f6e67</w>
656c69</w>
477261
696e646976696475616c73</w>
616666696c
72616e7473</w>
64697374616e6365</w>
6a</w>
6d616e6167657273</w>
6361746567
47696c
31393237</w>
797065</w>
736f6e73</w>
68757362616e64</w>
6e756d62657273</w>
636f6d6d69737369
4d6f756e7461696e</w>
3737</w>
626f6e
52657669
3030
436f6e66
6c7972
4e65746865726c616e6473</w>
656e64656e6365</w>
6d6564616c69737473</w>
426561
656e6e6973</w>
4a61636b736f6e</w>
6976616c</w>
6f6e6773696465</w>
3738</w>
41646d696e69737472
5461786f6e6f6d79</w>
736f6369657479</w>
627574
70726f6475637473</w>
6d656e74696f6e6564</w>
6e7563
546172
7061727469
61727269766564</w>
4b6f726561</w>
626f79</w>
3633</w>
6e6963
486f73706974616c</w>
31393232</w>
7363656e65</w>
436f72706f726174696f6e</w>
626172</w>
427269646765</w>
73656e74
77696e6e657273</w>
526964
676f6c
616d6f756e74</w>
7369676e</w>
42696c6c
3637</w>
51</w>
42616e67
46696e616c</w>
6368617274</w>
62697264</w>
656d656e74617279</w>
726961</w>
6d6974</w>
7570706572</w>
7265616368</w>
706f73736962
6d6173
68696768776179</w>
436f6c6f72
666f6c6b</w>
68656176
6361757365</w>
6275696c64</w>
70617373</w>
4465617468</w>
656e6765</w>
536f6369616c</w>
636f6e7369646572
3831</w>
776f726b657273</w>
7363656e
3836</w>
636f6e74726f6c6c
646974</w>
74656c
31393137</w>
47726f
6f6666696369616c6c79</w>
65696e67</w>
68617264
77616e746564</w>
686f73706974616c</w>
6d656d
65736961</w>
526163
636f6d7075746572</w>
50616b697374616e</w>
476f6c64</w>
6c64
7469616e</w>
626f7973</w>
63756c747572616c</w>
3734</w>
73747261
4a756e696f72</w>
776865
62656e6566
77656170
656c6564</w>
456c697a6162657468</w>
31393132</w>
6166666963</w>
676173</w>
4b656e74
436f726e
6173746963</w>
696e636f72706f7261746564</w>
6d6179
6c6576656c73</w>
766973696f6e73</w>
696e666c75656e6365</w>
646973616d626967
497261
46616c
717569636b
756e61</w>
457468
6e6174696f6e</w>
77696d
4152</w>
41746c616e746963</w>
6e6174757265</w>
646973616d626967756174696f6e</w>
3638</w>
496e63</w>
536563726574617279</w>
77686f6c65</w>
6c6f76
706f6574</w>
726573746f72
536176
666163696c6974696573</w>
656e747279</w>
4c49
4e6174696f6e73</w>
47656f677261706879</w>
31387468</w>
656374696e67</w>
6e6f7461626c65</w>
676976696e67</w>
73616d
3731</w>
4b75
4665646572616c</w>
736f6e67
6d6573</w>
477265656e
677261647561746564</w>
31393231</w>
427275
70726f6d6f
686973746f726963</w>
436f756e747279</w>
5377697373</w>
4f726567
3833</w>
6f77657273</w>
67617279</w>
6361706163697479</w>
31393236</w>
5461796c6f72</w>
656c656d656e7473</w>
66617374</w>
616c69</w>
70726f6d6f746564</w>
4b7572
66756e6374696f6e</w>
50726f647563
756c7473</w>
6970616c</w>
4f726967696e
73636f72696e67</w>
4265616368</w>
636f6163686573</w>
636f6e74696e7565</w>
5371756164726f6e</w>
436173746c65</w>
436f6c6f6e
4c6174
646566656174</w>
416e64726577</w>
466f7572</w>
53656e617465</w>
3832</w>
656e746572
6f7267616e697a6564</w>
44697374
436872
43757272
6e6574</w>
707572636861736564</w>
677269
6261</w>
526570726573656e74617469766573</w>
65676f</w>
73747265616d</w>
426f6e
506c61636573</w>
72656d6f766564</w>
4456
65656e</w>
3834</w>
746178
496e6475
31393235</w>
756e6b6e6f776e</w>
6c6561766573</w>
61736b61</w>
6973686572</w>
6b696e</w>
7472616e736d
4361707461696e</w>
636f6e74696e756573</w>
6368616972
7075
746563686e69
436f6c6f7261646f</w>
70726f64756365</w>
666c69676874</w>
616c6f6e6773696465</w>
6f6c646572</w>
636f6d6d6f6e6c79</w>
3639</w>
616e6e61</w>
6d6574616c</w>
7069616e6f</w>
4f7265676f6e</w>
5269
41726d
61727473</w>
6572696573</w>
657368
4b6f7265616e</w>
77696e64
31393233</w>
696c746f6e</w>
6f7761</w>
4461766973</w>
6f7269
736f7572636573</w>
6163746976697479</w>
7269616e</w>
70726f6772616d6d696e67</w>
6f677565</w>
636f6e666c6963
646564696361746564</w>
706572736f6e
736861
3837</w>
61756c74</w>
626f6e</w>
77696c
656e68
3733</w>
3739</w>
4261636b
4143</w>
697374657273</w>
3936</w>
6963696e65</w>
6170706564</w>
636865</w>
72756c65</w>
4269626c69
6f7469
333030</w>
706f7274756e
427573696e657373</w>
6f6e69616e</w>
61726775
6c696768
506173
416e746f6e
c3a1</w>
736572766573</w>
6c616e677561676573</w>
636f6e666972
77686574686572</w>
416e64</w>
44616e69656c</w>
6c61636b</w>
67726f777468</w>
686967686c79</w>
54656e6e6573
757368</w>
70617468
546563686e6f6c6f6779</w>
7265666c
426f726e</w>
636f617374</w>
706f7274696f6e</w>
536f7572636573</w>
657263
736d616c6c6572</w>
6d6f6e74</w>
7265706c6163
536c6f76
666f756e64
7765616c7468</w>
796f757468</w>
46616d65</w>
466f72657374</w>
757374696e</w>
626c7565</w>
7777
61646d696e697374726174696f6e</w>
576f726b73</w>
636f6e647563746564</w>
53696d6f6e</w>
4c696b65</w>
7265766f6c
d0b8
54656e6e6573736565</w>
6f7065726174696e67</w>
4f766572</w>
6c656164657273</w>
65666665637473</w>
616472</w>
63726577</w>
576f6f64
73757370
6a6f696e</w>
696e73696465</w>
65717569706d656e74</w>
6576657279
616b6564</w>
686f73746564</w>
69726f</w>
706f7373
7365637572697479</w>
697a696e67</w>
4345
486179
61646564</w>
4c616e
53776564656e</w>
61636164656d6963</w>
737072696e67</w>
64657374726f796564</w>
417574
656174686572</w>
6b6579
646973747269637473</w>
6772656174
436f6c6f6d62
7265666572
3938</w>
6c697465726174757265</w>
41726d656e
74657279</w>
6e6572
4d6973736f75
636976
4e6574776f726b</w>
53706f7274
666f7263
796574</w>
706c616e6e6564</w>
c582
70726f7465
56616e</w>
6d6f76696e67</w>
717569636b6c79</w>
616e64696e67</w>
4d6172796c616e64</w>
4a657773</w>
657474657273</w>
72756c6573</w>
72657065
6d69786564</w>
7465726e6574</w>
646973747269627574696f6e</w>
736f6c6f</w>
656e67696e656572</w>
70726f6a65637473</w>
636f6d706f736572</w>
696d6d6564696174656c79</w>
6661696c
656165</w>
726f706f6c6974616e</w>
616c6c69
6f6f6b
446f75
536162
61676f6e</w>
4f77
656c656374726963</w>
666f7277617264</w>
7479706963616c6c79</w>
68616269746174</w>
646972656374696f6e</w>
6d61726b6564</w>
53756e</w>
57686174</w>
4761
6969</w>
3932</w>
626567696e73</w>
7469766573</w>
6175746f6d
666f6c6c6f7773</w>
777777</w>
7065726d616e
6c6179
696e737469747574696f6e73</w>
4141</w>
31393135</w>
466f726d6572</w>
4e617a
65646f6d</w>
52616e67
65787472656d
657863657074</w>
4c616d
72657665616c6564</w>
746872656174
4a6163
7269736f6e</w>
4343</w>
6f726465726564</w>
437562
67657473</w>
4d656c626f75726e65</w>
6865617274</w>
7479706573</w>
636f6e74726f
45766572
6c6173</w>
73746f7265</w>
696c69
6f7269616c</w>
73706f6e73
4d53</w>
4b656e7475636b79</w>
42616e64</w>
526f626572
696e74656e646564</w>
706f70</w>
636f6e736563
416e696d
43697263
7363756c70
74656163686572</w>
657374617465</w>
7a6564</w>
73747261746567
6d6f756e7461696e</w>
746875
65726c616e64</w>
506f776572</w>
67726577</w>
6578686962
696c6c75737472
5265676973746572</w>
436f6e6e
76657273696f6e73</w>
776562</w>
766f7465</w>
616e6e</w>
6465706963
53747564696573</w>
4d6973736f757269</w>
4b656e
666e</w>
50726f666573736f72</w>
70726f6d696e656e74</w>
636f6d7065746564</w>
6f6c6c</w>
536e
3937</w>
6f6e737472
4c65776973</w>
74726561746d656e74</w>
636c61696d</w>
526567696f6e</w>
436c617373</w>
626563</w>
736574746c656d656e74</w>
63616d707573</w>
4265666f7265</w>
4861727279</w>
3139353073</w>
6272616e6368</w>
6261736973</w>
c3b8
73656d69</w>
63656c6c</w>
50726f6a656374</w>
616b69</w>
707261
7265636f676e697a6564</w>
4d6173746572</w>
4f73
7663617264</w>
6f7264657273</w>
736179</w>
6a756e
7465727269746f7279</w>
42756464
53797374656d</w>
737472656574</w>
c3a3
53746f72
70726f6261626c79</w>
5374657068656e</w>
67726567
5275676279</w>
616e6479</w>
626f7474
6b656570</w>
7a6f6e61</w>
73696f6e
696e697469616c</w>
726965</w>
576973636f6e73
31393136</w>
70617274696573</w>
7069656365</w>
616775
4d61726961</w>
427269616e</w>
576973636f6e73696e</w>
616772656564</w>
617379</w>
526f6d65</w>
436c6172
6d757365756d</w>
61676e
736f667477617265</w>
636f6d62696e6564</w>
c3ba
556e6976657273
736179696e67</w>
72616d
6f6666657273</w>
6c617267
3933</w>
6f70706f7274756e
506f7274</w>
4e6967
72656c79</w>
6869626974696f6e</w>
4d697373
4368726973746d6173</w>
6568
6162616e64
4443</w>
626c6f63
4e59</w>
74686561747265</w>
6f67726170686963</w>
756d70
7368616c6c</w>
626568617669
7075727375
76696c6c61676573</w>
53686172
706f6f72</w>
3934</w>
4e6f727468
4168
6772616475617465</w>
64616d</w>
7061706572</w>
747269616c</w>
4a696d
6166</w>
6d6178
656d65</w>
6368616d70696f6e</w>
6f757473</w>
796f6e64</w>
4d65646963616c</w>
697665727369
5570</w>
796e616d
63616e646964617465</w>
666967757265</w>
726f6974</w>
5350
496e646f6e
4e6172
61737472
726563656e746c79</w>
446f6e616c64</w>
7465726e</w>
616666696c69
636f6465</w>
61677265656d656e74</w>
6562
74686f7573
616e616c79736973</w>
4172697a6f6e61</w>
4d6172696e65</w>
636f6e6e6563746564</w>
6d61726b
6e6565646564</w>
686f757365
47756c
6f7264696e
416c6c69
48616d70
6d656574</w>
6a6f62</w>
62617373
6964656e746966696564</w>
31393133</w>
596f7572</w>
70657269616c</w>
66617265</w>
5072696d65</w>
5241</w>
7375</w>
707572706f7365</w>
4d656d6f7269616c</w>
7375666665726564</w>
74686972
72696572</w>
45616368</w>
31393130</w>
676f6573</w>
4353
4272616e
63616d70</w>
546169
6f6c6c6f77</w>
74656d706f72617279</w>
4672616e636973</w>
616d6963</w>
6974746572</w>
66656c6c6f77</w>
67617264
5363686f6f6c73</w>
73686f6f74
6f70686572</w>
74686f72
4d617274
447572
343030</w>
626f6174</w>
446574726f6974</w>
626f726f756768</w>
666c6f6f72</w>
616761</w>
65746963</w>
617661</w>
436f6e6e6563
6669656c6473</w>
7073796368
61736b</w>
4c696e64
6c6574746572</w>
7673</w>
6c616b65</w>
72616e6b6564</w>
626f61726473</w>
63686f72
736974</w>
48616e
666572696e67</w>
707269736f6e</w>
64697365617365</w>
63726f77
496e76
636f6e73657276
73796d62
4c617572
65746f6e</w>
636f77</w>
446967
4e6f72776179</w>
31393038</w>
486f6d
416e676c
6566666f727473</w>
66656c6c</w>
6172697479</w>
6379</w>
7374617273</w>
74726166666963</w>
706179</w>
506f6c69746963616c</w>
566965746e616d</w>
65726961</w>
3931</w>
477265656365</w>
4c616e64</w>
31393030</w>
706879736963616c</w>
57616c6c
6578706563746564</w>
6669636174696f6e73</w>
61646f70746564</w>
61637475616c6c79</w>
486f636b6579</w>
64656d6f6e737472
426162
4c69746572
467265646572
656c6c6572</w>
77696e73</w>
7477696365</w>
92</w>
6d696c6573</w>
6361707475726564</w>
6d6f64656c73</w>
636c6173736963616c</w>
4d696e6973747279</w>
6f6e657273</w>
766f6c756d65</w>
636f6e74656d706f72617279</w>
6b68
656e746572</w>
73706c6974</w>
7469636573</w>
6576</w>
736f
c4b1
4c69676874</w>
646e</w>
50697474
7363616c65</w>
697474696e67</w>
64656164</w>
73747279</w>
537769747a
756775
736c65
726163696e67</w>
706f74656e7469616c</w>
657870616e646564</w>
61796e65</w>
726573706563746976656c79</w>
31393131</w>
7578</w>
446f7567
3230303073</w>
307468</w>
4f6c69
536561736f6e</w>
4c696e63
5068696c697070696e6573</w>
617267
70726f76696e63
74696c65</w>
74656c6c73</w>
636f6e6e6563
616c6c6f7773</w>
617263686974656374757265</w>
746175676874</w>
456d7065726f72</w>
6c617267656c79</w>
666163756c7479</w>
c3a36f</w>
4d61696e</w>
756c74696d
686f727365</w>
6f7373
617567
696e6a757279</w>
76616c</w>
7369747561746564</w>
657374696d61746564</w>
656e67696e656572696e67</w>
6d7573696369616e</w>
4d65786963616e</w>
697461626c65</w>
70726573656e6365</w>
52756e
70726f64756374</w>
62726f6e7a65</w>
6a6563746564</w>
4d697373</w>
4269626c696f677261706879</w>
7472616e73706f7274</w>
5475726b6579</w>
74727565</w>
6b696e
4272756e
41726561</w>
6566756c</w>
c389
6f736973</w>
6b6573</w>
697474</w>
6e65776c79</w>
656e6e61</w>
537769747a65726c616e64</w>
756e7465
536369656e636573</w>
656c696d
776964656c79</w>
7369646573</w>
747261696e73</w>
61737479</w>
4d6f7265</w>
757263686573</w>
72656d61696e</w>
4368696c6472656e</w>
c3a16e</w>
66656574</w>
64726177</w>
63686169726d616e</w>
74726176656c</w>
706574
6163636570746564</w>
456e67696e656572696e67</w>
6661726d
496e74
646f63756d656e74617279</w>
4768
4368616e6e656c</w>
6564756361746564</w>
5370616365</w>
6372696d65</w>
617374657273</w>
6769766573</w>
d0b5
70736f6e</w>
496e66616e747279</w>
736865
69737465726564</w>
486f74</w>
636f6d7061726564</w>
4b61
63656c6c73</w>
6465636c61726564</w>
636572656d
656d706c6f796564</w>
706f736974697665</w>
4d616e63686573746572</w>
6769726c</w>
756e6b</w>
4368616d70696f6e73</w>
64616c65</w>
6170706172
736563746f72</w>
636f6e63656e74
726f6c6573</w>
4b696c
72656c6174696f6e73</w>
656175</w>
5475726b697368</w>
706172746963697061746564</w>
466f78</w>
67617465</w>
636c6173736573</w>
53796d
4d696c6c6572</w>
696d6d6967
6d6574686f64</w>
617068
746963616c6c79</w>
7265736572
616972706f7274</w>
6679696e67</w>
656c696e65</w>
4368616d
68696c6c</w>
6761696e6564</w>
53696e676170
626f756e64</w>
7370616e</w>
70616964</w>
4c696e
657870616e
d0b0
746f776572</w>
416c62756d73</w>
737069726564</w>
696e746572707265
77616e</w>
466963
6669726d</w>
4c696e636f6c
6d6f6c
6b6e6f776c65646765</w>
31377468</w>
6c6f73696e67</w>
5475
617468616e</w>
526576696577</w>
48616d696c746f6e</w>
616d6d65</w>
6361707461696e</w>
6f6773</w>
4561726c</w>
c3a965</w>
c3a2
456c6c
50696572
6d7572646572</w>
53796e
626f6d62
656c6c6967656e6365</w>
636f6c756d
6c6f77
706f727472
7468657265666f7265</w>
6f72696e67</w>
6e6963</w>
706f776572
6d6572676564</w>
416c626572
726573697374
737572726f756e64696e67</w>
496f7761</w>
5574
72656475636564</w>
61686f6d61</w>
4272617a696c69616e</w>
706564
6f74686572
6963697479</w>
727572616c</w>
617269616e</w>
6d6172696e65</w>
6f66666572</w>
6769726c73</w>
696e74657276696577</w>
646966666963756c74</w>
4b616d
54616e
42726f6f6b
6d617373</w>
62726f776e</w>
53756e646179</w>
706572666f726d616e636573</w>
6461726b</w>
42616c6c
6772616e746564</w>
666f637573</w>
7072657373757265</w>
726f7574
436f6e7472
726f616473</w>
4f6b6c
6469676974616c</w>
445644</w>
776f726b
414d</w>
57696e
656472616c</w>
656f7573</w>
696e76657374
43726f617469
726573756c746564</w>
6d696e6973746572</w>
546f646179</w>
73657473</w>
677569746172
6279
41757374726961</w>
e0a4
636f6e63657074</w>
e383
426f7973</w>
4f7574</w>
4539
417267656e74696e61</w>
4261736b657462616c6c</w>
616d696e67</w>
6c6f79
617070726f616368</w>
687572
45706973
4e61
506f6c626f74</w>
617a</w>
486f7573746f6e</w>
416c6162
4c41</w>
42756e
466c65
506f7274756775
66726573
676e
6e6974696f6e</w>
4d656d626572</w>
73696d756c
476f7264
5061
4f6b6c61686f6d61</w>
48656164</w>
617474656e74696f6e</w>
76657373
746f72616c</w>
746f776e
666163696c697479</w>
457373
62656c6f6e67
62656c6c</w>
726573746c696e67</w>
79656c6c6f77</w>
7273</w>
656e67</w>
706c6174666f726d</w>
42696c6c626f617264</w>
4d41</w>
6f6674</w>
726f6f6d73</w>
48756d616e</w>
43656d6574657279</w>
757469
6a6f75726e616c697374</w>
756e6374</w>
4972616e</w>
4550</w>
6167656e74</w>
6f746564</w>
416e646572736f6e</w>
54756e
4e6f727765
736976656c79</w>
6163656165</w>
446f6d696e
626967</w>
53696e
57616c746572</w>
79657273</w>
6176656e</w>
6f7361</w>
626974</w>
756d656e74</w>
636f6d6d6974746565</w>
67726f77696e67</w>
6164766572
506170
6f7269</w>
5472616e73706f72746174696f6e</w>
4d50</w>
74696f6e6564</w>
706173736573</w>
42617262
636f7265</w>
50726f64756374696f6e</w>
726573756c74696e67</w>
73746570
506f696e74</w>
617472
7265666572656e6365</w>
72697365</w>
57696c6c
627572696564</w>
636c656172</w>
44616c
6b657074</w>
53656e696f72</w>
636f6e74656e74</w>
546f6b796f</w>
756c6174696f6e</w>
536f6369
61726961</w>
5761746572</w>
70726f626c656d</w>
696e697479</w>
6865696d</w>
636f6e7374
65646765</w>
61697265</w>
4a6f6e
7068696c6f736f7068
5069747473
4d617269
526567696f6e616c</w>
71756172746572</w>
636861727473</w>
416c6162616d61</w>
656e636f7572
416d65726963616e73</w>
6578706c6f
657463</w>
73617973</w>
636869</w>
6b7368697265</w>
6163636f756e74</w>
546f
74696c6c657279</w>
486f6c79</w>
57686f</w>
6f7661</w>
61636b696e67</w>
62656174</w>
517565626563</w>
636c61696d73</w>
68616c6c</w>
4e6f7277656769616e</w>
73706f72747370656f706c65</w>
6576616c</w>
43617264696e
7374727567
7375627374
636f72706f72
4d6f6465726e</w>
70726f66696c65</w>
686f7572</w>
66616972</w>
647279</w>
456e7465727461696e6d656e74</w>
70726f766964696e67</w>
696d6d
446f
61747461636b73</w>
696f6e65
4b6c
63616e636572</w>
4d6f73636f77</w>
6e6f6d696e61746564</w>
74696572</w>
636972
726567696f6e73</w>
656c66</w>
6f63637572726564</w>
4f6d
6f63637570696564</w>
42617474616c696f6e</w>
6c696272617279</w>
44617665</w>
7963
74696f6e616c6c79</w>
62616368</w>
4c796e
416c62657274</w>
ab</w>
5769
6261636b696e67</w>
64676573</w>
4349
6d617468656d61746963
50726f66657373696f6e616c</w>
61736b
796f756e676572</w>
446965676f</w>
6578697374696e67</w>
486f77617264</w>
506f7274756775657365</w>
64616d616765</w>
657373696e67</w>
76656869636c6573</w>
686f7573696e67</w>
54616b
5361747572
6379636c65</w>
517565656e73
61646d696e697374726174697665</w>
4149
426164
4d61747468
67726561746572</w>
656673</w>
98</w>
5068696c6c69
4d616e6167656d656e74</w>
46697265</w>
696e616c</w>
4675
5061747269636b</w>
4265747765656e</w>
6f6e6473</w>
31367468</w>
5365727669636573</w>
6669676874696e67</w>
61676f6e
70657263656e74</w>
796d</w>
746178</w>
c3ad61</w>
4e6167
46726565</w>
726573746564</w>
616e676572</w>
6b6e6f77</w>
666573746976616c</w>
79776f6f64</w>
46696768
7368617265</w>
6861626974616e7473</w>
696c6c696e67</w>
626c6f6f64</w>
74656d706c65</w>
42656361757365</w>
4964
506f74
6461746564</w>
626174</w>
706c6f6d
6f6666696369616c73</w>
696b</w>
7468656d65</w>
46656465726174696f6e</w>
7374726f
6d696e757465</w>
43617065</w>
466f726569676e</w>
6f726967696e</w>
697a</w>
72616e6365</w>
6c7972696373</w>
436c6576
63616e6e6f74</w>
746966696564</w>
696e6b696e67</w>
7472656573</w>
7469637574</w>
636f75706c65</w>
426f62
5a68
7265706f727473</w>
436f6e6e65637469637574</w>
646566696e6564</w>
657373696f6e73</w>
6c617374
63657074696f6e</w>
75626c696e</w>
6f6c64657374</w>
6f6c6973686564</w>
4e6576
726179</w>
6c6f6f6b</w>
506c616365</w>
6f70657261</w>
6465706172
7472616e73666572</w>
426168
4c656769736c
67726176
67757374
65636573</w>
7477656e7479</w>
64657363
6b696c
57697468
73746f636b</w>
436176
54686f72
62696e67</w>
66696e697368</w>
436162
696e61746564</w>
736166657479</w>
707265736572
6f67656e
636f6e666572656e6365</w>
6472616674</w>
446f6d
73686f70</w>
6f7564</w>
6372656174696f6e</w>
416e74686f6e79</w>
637573
6164766973
72657374617572
6f726573</w>
42656e</w>
66656c74</w>
6a7572
49737261656c69</w>
637269746963616c</w>
6b696e64</w>
636f6e636c7564
706c616e65</w>
48756e67617269616e</w>
737563636565646564</w>
6563746f72</w>
4e696b
546974
416d6f6e67</w>
616c6c6f77696e67</w>
6d7574
416c616e</w>
636f6d706f6e
656c6f70</w>
636f6d706c6574656c79</w>
6a756e63
7265636f6d6d
6c65746573</w>
65696768
6f73656e</w>
69646572</w>
647261776e</w>
666f6f74</w>
44657369676e</w>
6472697665</w>
73686170
6976616c
696369616e</w>
656c65</w>
4268
d0bd
7369787468</w>
6569</w>
6465636f72
656e657373</w>
42656c67
706f6c6974696373</w>
616c6c696e67</w>
6272616e64</w>
6173696f6e</w>
636f6d6d616e646572</w>
6c656164657273686970</w>
436861726c
c483
7261636573</w>
6661636564</w>
736574746c6564</w>
4b79
656666656374697665</w>
756e69717565</w>
b2</w>
68747470</w>
796e61737479</w>
6164756c74</w>
456167
6576696e</w>
7465616368696e67</w>
97</w>
756c6564</w>
616e696d616c73</w>
57656c7368</w>
617564
4c6973
64656275
636f6d70696c6174696f6e</w>
706f736573</w>
62726f7468657273</w>
677261706879</w>
7374617272696e67</w>
486973746f726963616c</w>
6566666963
696e6861626974616e7473</w>
6578706572696d
4d6f68
5468697264</w>
636f6e63657274</w>
617574686f726974696573</w>
7072697365</w>
747261646974696f6e</w>
436f6d696373</w>
73616c6573</w>
6174686c65
636f6d6d697373696f6e6564</w>
31393036</w>
65636b</w>
6e6563657373617279</w>
436f6d6d6f6e
426f75
736f63636572</w>
697374696373</w>
646576656c6f70</w>
4e696368
7761</w>
50697474736275726768</w>
676f7665726e6f72</w>
46656c
42726164
7072696e636970616c</w>
41757468
73696d706c79</w>
4d69616d69</w>
517565656e736c616e64</w>
74696d6f7265</w>
416c6c656e</w>
46616972
31393039</w>
6f6273657276
42726967616465</w>
436c6576656c616e64</w>
696768746c79</w>
437a656368</w>
6d6f757468</w>
6573746963</w>
656666</w>
696d616765</w>
64726564</w>
696e737069726564</w>
7061696e746572</w>
4d6f6c
6c696e6564</w>
69766572736974696573</w>
737175617265</w>
7472696564</w>
7375636365737366756c6c79</w>
72657475726e696e67</w>
726f62
7374616469756d</w>
76656e756573</w>
4f6e6c79</w>
6d6574726573</w>
76696e</w>
70617373696e67</w>
7265746972656d656e74</w>
69656e7473</w>
766965776564</w>
66616e73</w>
686561647175617274657273</w>
7468696e6773</w>
6f6d62</w>
616c7279</w>
666f7265737473</w>
537269</w>
657262
4e4341
50726f</w>
31393035</w>
626f756e64
4d6f6e747265
72656365697665</w>
42616c74696d6f7265</w>
7265636f766572
4f53</w>
70726f6d6f74696f6e</w>
42656e67
746961</w>
77697365</w>
70616972</w>
626f75676874</w>
69c3b36e</w>
436c696e
4f74
626967
506c6174
4578706174
53616d</w>
416666
736567
447565</w>
526179</w>
666f6c6c6f77</w>
756b</w>
4769726c</w>
417263686974
706172746e
6265726564</w>
4f7263686573747261</w>
7461696c</w>
656461</w>
626c6f636b</w>
746f756368
69c487</w>
616c6f</w>
656475636174696f6e616c</w>
53696e6761706f7265</w>
76656869636c65</w>
6e6573</w>
6e6974
7574697665</w>
73746f6f64</w>
4275696c64696e67</w>
657269</w>
72657374726963
436f6e7374
476f6f64</w>
74657272
746573</w>
6d756e69636970616c6974696573</w>
31393037</w>
686561646564</w>
31393034</w>
53746f7279</w>
736c69
73756c
437261
6d6f6469
61706f6c6973</w>
5461
45787061747269617465</w>
4e6f74</w>
636173
c2b0</w>
6a75646765</w>
7075626c69636174696f6e</w>
416476
446573637269
54656d706c65</w>
61646572</w>
476f72646f6e</w>
617475726573</w>
466f72636573</w>
48617276617264</w>
6f6f7468</w>
696d706c656d
4d6167617a696e65</w>
626579</w>
737567676573746564</w>
4279
72616e6b</w>
436f7374
636f76657273</w>
42726f77
4d75736963616c</w>
6177617265</w>
47616d
506c61796572</w>
69636b6574</w>
494e
696e6574</w>
487567
66696775726573</w>
426179
50756e
44616d
676172</w>
496e666f726d6174696f6e</w>
61726d</w>
6e6f76656c
506c6f74</w>
73696e67657273</w>
656d626c
72657669657773</w>
696e647573747269616c</w>
466f7264</w>
566f6c</w>
666f7274</w>
4d75736c696d</w>
657870616e73696f6e</w>
73686f776564</w>
656e7669726f6e6d656e74</w>
636f6e766572746564</w>
73657175656e6365</w>
536f757468
7669736974</w>
4c61626f7572</w>
617070726f766564</w>
4769726c73</w>
6d756e69636970616c</w>
656c7665</w>
72656c61746976656c79</w>
617175
4275696c64696e6773</w>
50726976
6566666f7274</w>
54726176
4475626c696e</w>
73746f70
6272696e67</w>
73656374696f6e73</w>
696369616e73</w>
6f666673</w>
616476616e74
5374616e64
6c617773</w>
746965</w>
667269656e64
63656c6c
5543
736b</w>
66616c
5472616e73706f7274</w>
436f6d6d756e6963
5479
476162
6d656d62
6c6967
4c6f75697369616e61</w>
73746174697374696373</w>
696e67756973686564</w>
616e697479</w>
6f75726564</w>
4261726f6e
6573746572
6563</w>
65786368616e6765</w>
4865617274</w>
45726963</w>
4e6176616c</w>
636f6e766963
7567616c</w>
6f6e616c6c79</w>
6d6f6d
666565</w>
6166746572
64696666
6d657373
6461696c79</w>
446f75676c6173</w>
6d6f726e696e67</w>
526f7365</w>
617272616e67
6578636c75
426f776c</w>
436f77
636f6e7461696e696e67</w>
50617274</w>
6d6174657269616c73</w>
436f6d6d6f6e7765616c7468</w>
7377696d
7374726f6e67
6f7a
65666c79</w>
617574686f72697479</w>
476f72
637574
6d616368696e65</w>
6e6f62
4d617572
466f6c
637573746f6d
53696e676c6573</w>
4869
6e6f72746865617374</w>
5365766572616c</w>
687964726f
6775657374</w>
636f68
64726f70706564</w>
536f63
4345</w>
49736c616d6963</w>
617474656d707473</w>
61746162
42656c6769756d</w>
6172726573746564</w>
44616c6c
42756666
6f61</w>
6672657175656e746c79</w>
756c6573</w>
706572666f726d696e67</w>
6e696e
626f72</w>
656f6e</w>
6f7373</w>
6a6f696e696e67</w>
73637265656e
697373697070
5068696c6970</w>
5343</w>
4b6576696e</w>
646566656e7365</w>
5354
77696e746572</w>
7464</w>
4d697373697373697070
61726d6564</w>
636f6c6c6567
4453</w>
6469616c
7761746572
736369656e7469666963</w>
4d616368
68616e6473</w>
6c796e</w>
6e6f726d616c</w>
4575
6170706c696564</w>
627564
6d6f6e</w>
656e656d79</w>
526f756e64</w>
74696e6773</w>
4d6f6e747265616c</w>
616c6f6e65</w>
737570706c79</w>
6a6f696e74</w>
416e746f6e696f</w>
636f6e6669726d6564</w>
64656570</w>
636974697a656e73</w>
616973</w>
45726e
7475
62726f6b65</w>
6163686965766564</w>
636f6d626174</w>
6865616473</w>
6c6f74</w>
6472616d
666f75676874</w>
467572
5345
5341</w>
6d616e64
6b696c6c</w>
706167
46756c
4d5073</w>
4e656c
416c62
746c65</w>
736974756174696f6e</w>
4c656f6e
323073</w>
4d6f6f7265</w>
4d7273</w>
4c617374</w>
47726567
416e6e65</w>
63686f73656e</w>
68616e</w>
6a617a7a</w>
6167756573</w>
53746f6e65</w>
73757267
62696c6c</w>
4d657263
62616e6473</w>
616e63696e67</w>
4153</w>
6f70706f73
4164616d</w>
4d616e64
706572666f726d</w>
416e6472
6f736c6176
4c69657574656e616e74</w>
67726f756e6473</w>
4578656375
48696e64
41666768
43756c74757265</w>
656d6967
436f6d706c
61766564</w>
46696e6e
73756273657175656e74</w>
636f6e666c696374</w>
5265766f6c7574696f6e</w>
616c7465726e6174697665</w>
6d6973736564</w>
31393033</w>
6275726e</w>
416772
67656e65726174696f6e</w>
426f79</w>
61737465</w>
6f70706f736564</w>
726573736564</w>
6e6f6e
4e756d
6275</w>
7d</w>
6368616c6c656e67
72656e6365</w>
556e646572
73657875616c</w>
3139333073</w>
6c6f636174696f6e73</w>
656e6e79</w>
70726f6365
31393032</w>
66696e6473</w>
6d616c
43686572
706970
73656c6c696e67</w>
7269736b</w>
5761746572
4261636b67726f756e64</w>
72656675736564</w>
726967
736163
73696f6e616c</w>
52656c6967
4d69737369737369707069</w>
66726564</w>
636f6d7065746974696f6e73</w>
73637265656e</w>
496e646570656e64656e74</w>
536f66
436c61726b</w>
766174696f6e</w>
5365637572697479</w>
726562
41646d696e697374726174696f6e</w>
7371756164</w>
4c7464</w>
4c616e6775
506972
7265636f7264696e6773</w>
e28098</w>
6f627461696e6564</w>
456e7669726f6e
697a6573</w>
506f7065</w>
31393031</w>
4563
d180
706179
6c657474657273</w>
7265736f7572636573</w>
706172746e6572</w>
5353</w>
7665727365</w>
73706172
666f756e64696e67</w>
4144</w>
706f77657266756c</w>
4b68616e</w>
56656e657a
42656c6c</w>
4976
73746179</w>
736372
456d6572
736f6d657468696e67</w>
536967
6976</w>
416765</w>
61697373
6d61726b73</w>
73656e7365</w>
696d70616374</w>
4775617264</w>
53706f72747370656f706c65</w>
666c79</w>
41666661697273</w>
636f6e7365637574697665</w>
657874656e73697665</w>
496e7465726e6574</w>
7061696e74696e67</w>
686f70
526f676572</w>
42696c6c79</w>
756e61626c65</w>
44616e697368</w>
70696c6f74</w>
7265636970
73657474696e67</w>
626f64696573</w>
c3bc72
726f6c6c</w>
4c69626572616c</w>
6d6f746f72
6163636f6d70616e
626f78
4d6172676172
657465</w>
7665727369
536178
70726573656e7473</w>
616476616e636564</w>
686973746f7269616e</w>
6e75636c656172</w>
69636b73</w>
70726f74656374696f6e</w>
4d616c6179736961</w>
67616c6c
697363
4a656666
726561736f6e</w>
636162
50726978</w>
636f70696573</w>
476f</w>
4343
6c6f616e</w>
736861726564</w>
61697373616e6365</w>
4a65737573</w>
64727567</w>
65776f72
647269766572</w>
666963616c6c79</w>
696d70726573
53746577
70726576656e74</w>
4c6f63616c</w>
4c616e63
487572
4b617a
746163
4c696e636f6c6e</w>
736561726368</w>
5061756c
6f6363757273</w>
7265717569
42726f6164776179</w>
4150
56617269
313530</w>
566172
6672616e6368
656e7469746c6564</w>
5472616e73
6372656174696e67</w>
6572746f</w>
3e</w>
4174686c6574696373</w>
66726f
476f64
617a696e6573</w>
50656172
7479
4d6178
456e64</w>
417573747269616e</w>
6f6c6173</w>
4b6174
414e
636f6e7461696e6564</w>
6865617264</w>
6e656c</w>
6d61796f72</w>
4344
64657269766564</w>
4a6f7264
63656e747572696573</w>
436872697374</w>
6164766572746973
446f63746f72</w>
76697369746564</w>
666c6f77</w>
7574696f6e617279</w>
536f</w>
436f6d70616e
6f6273</w>
686f6c64696e67</w>
506f77
746578
72656c</w>
6162696c6974696573</w>
73756974</w>
6469726563746f7273</w>
77656c
5545
44616e</w>
4375
657363
617474656d70746564</w>
636f6e736973746564</w>
6368616d70696f6e73</w>
4e6f7465</w>
6d656d6f7279</w>
65727365</w>
4272756365</w>
7573696f6e</w>
616368656c
4e4241</w>
7065726d616e656e74</w>
4a75616e</w>
54696d</w>
5265616c</w>
757375616c</w>
736d616e</w>
636f6d6963</w>
6d6574686f6473</w>
6f727068
55706f6e</w>
6f72726f</w>
48756e67617279</w>
416363
696e6672
5472757374</w>
766172
49726171</w>
61756469656e6365</w>
41746c616e7461</w>
6964656e7473</w>
7365617473</w>
656d6f
6d6f</w>
6f756e64747261636b</w>
616374726573736573</w>
636f617374
656e64656d6963</w>
6661726d</w>
6976657273617279</w>
6d756c7469</w>
656469746564</w>
7070696e67</w>
6c6561726e696e67</w>
6469736369
766163
506f72747567616c</w>
656e64657273</w>
4c50</w>
5779
417567757374
696e67656e</w>
616c697a6174696f6e</w>
64726577</w>
696173</w>
4d6f756e7461696e73</w>
766f746573</w>
c3a972
6c6963656e73
636f6e74726f6c6c6564</w>
736c696768746c79</w>
576179</w>
50726f6772616d</w>
6f706572</w>
6d61
4861776169
4e6f77</w>
536865
73706f6b
48616e64
526170
67756e73</w>
617368696f6e</w>
53747564696f73</w>
446f64
6f67726170686572</w>
7469616c</w>
53616d75656c</w>
706173
6164766f63
696e636f6d65</w>
72656d656e7473</w>
61747461636b6564</w>
62696c6c696f6e</w>
617263686974656374</w>
7768657265
616d70</w>
556b7261696e
44616e6365</w>
756773</w>
65776179</w>
6469766973696f6e73</w>
7265637275
67656e65</w>
31307468</w>
73686f72746c79</w>
4a6f686e6e79</w>
64657465726d696e6564</w>
706965636573</w>
616e64657273</w>
46494641</w>
53656174746c65</w>
6974696f6e73</w>
6c6477696465</w>
72657363
746872656174656e6564</w>
4a65
70617373656e676572</w>
636f6e73756c
636c696e
626567696e</w>
6c6f6f6b696e67</w>
4c43</w>
50696c
31327468</w>
726f7773</w>
616572
63616c6c73</w>
726567696d
726566657273</w>
71756172746572
706f65747279</w>
636f6c6c6563746564</w>
5075626c697368696e67</w>
6e65656473</w>
6f70706f736974696f6e</w>
506564
6170706c69636174696f6e</w>
4f7065726174696f6e</w>
536163
6f666669636573</w>
746974756465</w>
41726162</w>
63686172676564</w>
7374726169676874</w>
47756e
616e646f</w>
666163746f7279</w>
746563686e6963616c</w>
e0b8
6e6f72746877657374</w>
726964
4261726f6e</w>
4567797074</w>
616b68
736174
52657365727665</w>
6f776e657273</w>
46726564657269636b</w>
6163656e74</w>
756d6573</w>
706f696e74
6a756e6374696f6e</w>
726f74
6d6170</w>
636f756e74</w>
4179
686f74656c</w>
506572736f6e6e656c</w>
636f72726563
4f6e6365</w>
59616e
506164
414243</w>
4465736372697074696f6e</w>
65787472
6f72616c</w>
70726f766564</w>
6772657373697665</w>
7279696e67</w>
61747472696275
616e74617379</w>
44616c6c6173</w>
31337468</w>
6162616e646f6e6564</w>
74686f646f78</w>
737765
7065616365</w>
657461</w>
6f6e696e67</w>
726570726573656e74696e67</w>
70726f70657274696573</w>
666f726d616c</w>
6c616964</w>
6a6f79
67616d
4a696d6d79</w>
66656d616c6573</w>
657965</w>
4b616e
4b69
68697473</w>
4265</w>
616368696576
446f6c
6b696c6c696e67</w>
696e656d61</w>
5279616e</w>
4361726c</w>
41626f7574</w>
707570
656c6c69</w>
756c74696d6174656c79</w>
486f
636f677261706879</w>
5765656b
6c696e65
7379</w>
53696c766572</w>
696c616e64</w>
7772697465</w>
4d617263
70726f666974</w>
546572726974
476f6f64
657273656c66</w>
6c6567</w>
7363617065</w>
4275646468
5468656e</w>
6465637265
6869726564</w>
737072656164</w>
4c617772656e6365</w>
50756572746f</w>
77696368</w>
65646961</w>
6f706572617465</w>
7068617365</w>
6f70706f6e
706c616e6e696e67</w>
746865736973</w>
616e616c79
537175617265</w>
41726b
706f737369626c79</w>
737072
696c6564</w>
496365</w>
446f776e</w>
776561706f6e73</w>
726563656976696e67</w>
6d65616e74</w>
6265796f6e64</w>
556b7261696e65</w>
686f6e6f72</w>
486f74656c</w>
636f6e6e656374696f6e</w>
61696c696e67</w>
596f757468</w>
68656176696c79</w>
72656c6967696f6e</w>
74686561737465726e</w>
50696e
4c6f76
6964656e74697479</w>
4d6573
4c6f67
656d7068
7061676573</w>
53746f636b
6973686f7073</w>
487564
4d4c
56696c6c616765</w>
70617472
68797468
737461727473</w>
726964</w>
417267656e74696e65</w>
536f756e64</w>
4254</w>
4d6574726f706f6c6974616e</w>
53747265
46697665</w>
646f696e67</w>
6167726963756c747572616c</w>
526179
746861</w>
6c657473</w>
4c6573
696e7374727563
56656e657a75
626164
66756e6374696f6e73</w>
4d6178</w>
636f6e646974696f6e</w>
64656e73
7472616e7369
776974
666c656574</w>
4865726974616765</w>
636f6e74616374</w>
31383938</w>
696e7465726e
47617279</w>
6f73746572</w>
5279
696c6c6572</w>
686177
526f6d616e6961</w>
7265636f676e6974696f6e</w>
456c656d656e74617279</w>
76696365</w>
63726974696373</w>
597567
4261636b</w>
696e6372656173696e67</w>
53706f7274</w>
496d70657269616c</w>
536f636f72726f</w>
706172616c6c
31357468</w>
686f6d6573</w>
796d6e
6d697373696f6e73</w>
70726f6772616d6d65</w>
7265616368696e67</w>
697273</w>
6d6178696d756d</w>
42726f7468657273</w>
626f77
486f6e6f757273</w>
77696e64</w>
69636564</w>
7a6f6e65</w>
4f7572</w>
436865
486172726973</w>
4b656e74</w>
6772657373</w>
57696c64
416368
31383939</w>
7072696e74</w>
6d61726b6574
796f7572</w>
656c6579</w>
7375726e616d65</w>
53686f7274</w>
54686f756768</w>
4154</w>
5072696f72</w>
756e6372656469746564</w>
68657273656c66</w>
6f67726170686963616c</w>
726f79616c</w>
6469706c6f6d
47656e6572
47617264656e</w>
4d696b
31347468</w>
57656273697465</w>
6d656469756d</w>
70726f706f73
43756d
43756c747572616c</w>
62726f6b656e</w>
7472696275
4269726473</w>
75736572</w>
7363656e6573</w>
736f75746865617374</w>
61707469
64696374696f6e</w>
bd</w>
6465706c6f79
566f6c756d65</w>
73696d706c65</w>
437275
65747461</w>
44616b
457865637574697665</w>
7472657373</w>
4a6f73c3a9</w>
737465656c</w>
6d61696e7461696e6564</w>
526f7373</w>
4c47
d181
31383935</w>
706f77657273</w>
64697370
76616c6c6579</w>
4a656666</w>
53747269
616368656c6f72</w>
486f6c6c79776f6f64</w>
656d656e</w>
5441</w>
4c494e45
657363617065</w>
436f6c6f6d626961</w>
646566656e73697665</w>
656772
5965617273</w>
616e67656c
50687973
696e74726f64756374696f6e</w>
6261736963</w>
426567
4e61747572616c</w>
726573656172
6a6f</w>
7475726e73</w>
6172646f</w>
7769636b</w>
616e6e65</w>
54616d696c</w>
6c69746572617279</w>
616e6e79</w>
696e6561</w>
7576
596f726b7368697265</w>
6e65676f7469
7468656f72
5665
61676572</w>
6c6579
72617469
496e646f6e65736961</w>
4a616e65</w>
e381
6571756976616c
6578697374656e6365</w>
6363</w>
636f76657279</w>
75726e</w>
656e7472616e6365</w>
696e646570656e64656e6365</w>
4d656e
436f6d6d616e64</w>
696e636964656e74</w>
4c494e454152</w>
506c6179657273</w>
7175697465</w>
616d696e</w>
6f6779</w>
676c617373</w>
414d
44656e6d61726b</w>
537765
6d6174746572</w>
537564
4173736f6369
676f616c
416c69</w>
6a756e696f72</w>
656e646d656e74</w>
6a616e</w>
4e6f62
6d696e6768616d</w>
66696e697368696e67</w>
69736c616e6473</w>
536166
62696e
41726e
686569676874</w>
73706f74</w>
6b696e67
4b6e69676874</w>
4f70657261</w>
6f63637572</w>
6c6563
6261
4775696465</w>
6f6e69</w>
4d616a
53706972
6e65696768626f72686f6f64</w>
726570726573656e74</w>
6368757263686573</w>
7374616e6473</w>
7175657374696f6e</w>
636f6e7472696275746564</w>
637269636b6574</w>
63726f
6f6c6f6769737473</w>
4e434141</w>
6c656167756573</w>
7074</w>
50686f
4f616b
436f6c6f6e656c</w>
62726965666c79</w>
e280a0</w>
6861726d6f6e
73757374
5649
c39f
726573706f6e736962
65737461626c6973686d656e74</w>
4d6567
7072696e6369
7374616e6461726473</w>
6f6c66</w>
556b7261696e69616e</w>
43686f
7a68
77616e74</w>
4772616e
65636f6e6f6d79</w>
527564
43696e63
726976657273</w>
666f7264
636c696d617465</w>
6963696465</w>
31383930</w>
70726f647563696e67</w>
636f7572736573</w>
6f747465</w>
6c69616d656e74617279</w>
656d626c65</w>
737570706f7274696e67</w>
4a757374</w>
c3ad</w>
7368617065</w>
6f6d6574
696e647563
6172746d656e7473</w>
436974696573</w>
67656e6f7573</w>
52757373656c6c</w>
706f72746572</w>
4564</w>
6675656c</w>
6661696c757265</w>
77616c6c73</w>
4d757272
466f6f7462616c6c
526f6c6c
656e6761676564</w>
436f6e636572
706c7573</w>
666f6375736564</w>
72656e6f76
626f74746f6d</w>
746f77617264</w>
7472616e736c61746564</w>
73746f726573</w>
676c6f62616c</w>
57616c6b6572</w>
776f6f64
746172</w>
426f74
666c6f
55454641</w>
6c6f6164</w>
646973706c6179</w>
42726f6f6b6c796e</w>
4174686c65746963</w>
4269726d696e6768616d</w>
53746577617274</w>
616e696d616c</w>
636f6d6d6f64
7967
363030</w>
696e67696e67</w>
6c6177796572</w>
736872
56696365</w>
7773</w>
64757479</w>
72617265</w>
636f6e73697374696e67</w>
64726166
31383936</w>
4665726e
63617573696e67</w>
476f6c64
6775696c
61646170746564</w>
726570726573656e746174697665</w>
666c79696e67</w>
44696f63657365</w>
4564696e
446566656e7365</w>
56696e63
5374616e6c6579</w>
73657564
6c696f6e</w>
746172676574</w>
75616e</w>
616d6174
61736b73</w>
576f6f64</w>
e382
6c6f636f6d6f
6c696e6b</w>
73756e
486f77</w>
46656d
74656d7065726174757265</w>
72656175</w>
496e697469
6e7572
31383937</w>
63686f696365</w>
696e7374616c6c6564</w>
546967657273</w>
7564</w>
4a616e</w>
7472616e736c6174696f6e</w>
55746168</w>
65676574
4d617474</w>
6469616d
4b656c6c79</w>
726561736f6e73</w>
4368726973746f70686572</w>
73657373696f6e</w>
65766f6c
636174616c
57696c6c</w>
526f6d616e69616e</w>
4c69766572
73616c65</w>
627573696e6573736573</w>
4d49
526163696e67</w>
4d6f7267616e</w>
66726167
5975676f736c6176
4f6365616e</w>
64656361646573</w>
57726974657273</w>
736f75676874</w>
4b696e
5261696c726f6164</w>
6572696e65</w>
50686f74
536f63636572</w>
696e766173696f6e</w>
736f6e67777269746572</w>
6f7267616e6973
436f6d6d616e646572</w>
6f62736572766564</w>
4e6174697665</w>
616e696d61746564</w>
4b6f6e
4d61726965</w>
6561726e696e67</w>
4d6f6f6e</w>
72657369676e6564</w>
726567617264696e67</w>
747261696e6564</w>
747279696e67</w>
7477656c7665</w>
4d61726761726574</w>
646f6d6573746963</w>
506c65
4465616e</w>
61736572</w>
50616c657374
6361727279</w>
70726f74656374</w>
72656c6c</w>
77696e
70657266
636c6f73656c79</w>
66726f6e
6578697374</w>
4765726d616e
616d6d6164</w>
616d70746f6e</w>
48657265</w>
656d70686173
636861696e</w>
4170706c
6f6c6f67696573</w>
46756e
72756c6564</w>
6172696c79</w>
696e666c75656e636564</w>
6d65726368
4348
416c6578616e64
69726f6e</w>
4146</w>
c397</w>
52616c
67657474696e67</w>
73656c656374696f6e</w>
657369616e</w>
737065656368</w>
4d616c65</w>
4a61736f6e</w>
43696e63696e6e
65746564</w>
4c69746875
62656c69
636f726e6572</w>
4564696e6275726768</w>
4b696d</w>
66696c6c6564</w>
52616e67657273</w>
70617469656e7473</w>
526563657074696f6e</w>
696e617567
64796e61737479</w>
6f75726e6579</w>
496e6469616e73</w>
61766f6964</w>
657874656e73696f6e</w>
4c6f776572</w>
536175
5361747572646179</w>
6f626a
64696f63657365</w>
4368616d70696f6e</w>
486162
43617374</w>
70696f6e65
70686f6e79</w>
4c6f6e67
726174696e67</w>
726f75746573</w>
65756d73</w>
636f766572696e67</w>
656e636f756e
6d6963726f
696e686572
6f7669c487</w>
7061636b
74616e</w>
70617373656e67657273</w>
6163746572
48616d707368697265</w>
66756e64696e67</w>
7369676e616c</w>
6d697374
6c657273</w>
61726368</w>
43656e74757279</w>
31383835</w>
776f6f
7374656164</w>
57656c6c
4150</w>
52616e
5765656b</w>
6c65616e73</w>
627573696e657373
43696e63696e6e617469</w>
76697274
4368696c65</w>
696e6a75726564</w>
6465736372697074696f6e</w>
65737461626c697368</w>
53746576
737472656e677468</w>
7370656369666963616c6c79</w>
6772656174657374</w>
63697263756c
6974616c73</w>
616e7377
4c6562616e
48656e64
416272
62616c</w>
526f79</w>
6f726174696f6e</w>
61646a6163656e74</w>
5761
476962
49616e</w>
74686561746572</w>
6176</w>
61746368
646576656c6f70696e67</w>
626c65
426c756573</w>
736572696f7573</w>
706f6c6c
736f6c7574696f6e</w>
69657273</w>
4e6f726d616e</w>
3664
757373
616c6961</w>
6574686e6963</w>
656d6564</w>
7265676172646564</w>
73656c6563
7572726963
50726566
6e6f72</w>
436174616c
656e746972656c79</w>
4368616c6c
6e69636b6e
776f726c6477696465</w>
6972696e67</w>
696e7665737469676174696f6e</w>
4f7274686f646f78</w>
51756172
746f72617465</w>
636f6d65
50616c616365</w>
416c6578</w>
54686f6d70736f6e</w>
46696c6d
72657365727665</w>
416476656e74
6f7567686c79</w>
4c6164
6c61756e6368</w>
637275
646974696f6e616c6c79</w>
6d657273</w>
7175616c6966696564</w>
4769616e7473</w>
416e6479</w>
4772616e74</w>
766f746564</w>
7461696e696e67</w>
7375627572
4f74746f6d616e</w>
31383932</w>
617070696e67</w>
4e69636b</w>
6574696573</w>
456e65726779</w>
4a6f7264616e</w>
6761696e</w>
41757374696e</w>
737479
73686f7265</w>
4368616972
43616d70</w>
696e74657273656374696f6e</w>
427563
736861706564</w>
7365656d73</w>
706c6f74</w>
7265736964656e7469616c</w>
737562</w>
696e766f6c76696e67</w>
646165</w>
426564
766f6c756e7465
42617365</w>
e288
617374657279</w>
6d696e64</w>
5761796e65</w>
636f6d706f73657273</w>
6b6565</w>
6d6163
4972616e
77656174686572</w>
63726f7373696e67</w>
737065616b696e67</w>
7072696365</w>
5374617273</w>
31317468</w>
4461726b</w>
4368617274</w>
5570706572</w>
46696e6c616e64</w>
57696e67</w>
636f6f7264696e
62756e
6f72617279</w>
42656c6769616e</w>
61637475616c</w>
68617073</w>
636175736573</w>
62656c69657665</w>
66616c6c73</w>
31383934</w>
42616e676c6164
74656e6e6973</w>
5472616465</w>
5072696e63657373</w>
617263
737566666963
6d69</w>
6d656e74
43616d6572
75726174696f6e</w>
74616c6b</w>
546f74
6265616e</w>
6d6f7274
616b6961</w>
5043</w>
536f
486f70
73696e67696e67</w>
677569746172697374</w>
72656172</w>
4f64
476f6f
656e7669726f6e6d656e74616c</w>
526f62696e736f6e</w>
756e6976657273
63686172676573</w>
70726f7465696e</w>
56656c
536f72
c3a5
6f7573746963</w>
656172696e67</w>
73616e64
4f726c65616e73</w>
43616d7062656c6c</w>
73746172726564</w>
53696465</w>
6f6e796d
526567756c
547275
657870726573736564</w>
6d616c6573</w>
6368616d70696f6e7368697073</w>
4e75
476f6e
4249</w>
496e64
416c756d6e69</w>
74726f75
4164616d73</w>
72657474</w>
61737472756374757265</w>
4144
53747564696f</w>
636f6d62696e6174696f6e</w>
72657373696f6e</w>
4d616b
536f78</w>
52616262
7468696e6b</w>
576865
4d696464
656e7469616c6c79</w>
66756e6473</w>
48696c6c73</w>
696e7669746564</w>
726573697374616e6365</w>
6c65616473</w>
7363686564756c6564</w>
656e6a6f79
6173686564</w>
53747261
5061747269
6170706f696e74
c59f
6174656e</w>
736f6e
577269676874</w>
756c6c
d182
4f666669636572</w>
656e67696e6573</w>
76696f6c656e6365</w>
70726f6d6f7465</w>
417669
61757469
4a65727279</w>
4e4153
736372697074</w>
456c69
546f6c
416264
616e676c65</w>
6f7070696e67</w>
d0bed0
7068656e
506965727265</w>
43616e</w>
42726f6e
736f75746877657374</w>
c3a16e
416e63
696d70726f766564</w>
6561736564</w>
4e656c736f6e</w>
69736572</w>
63617465676f7279</w>
6f70696e
7072696e746564</w>
656f73</w>
7375627369
566963746f72</w>
756d61</w>
c3b4
6f6666656e73697665</w>
53696e6768</w>
707572</w>
696e7465726e616c</w>
4d7572726179</w>
4261727279</w>
46656c6c
686f737473</w>
61737473</w>
524f
4c6573</w>
417373697374
62656c696576
7265706c616365</w>
476c6173
416e6e</w>
636f756e746572
7065616b</w>
70726973696e67</w>
536f6d65
4c6175
576f6d616e</w>
6578657263
63757373696f6e</w>
61746162617365</w>
48696e
616d656e74</w>
417263
617474</w>
766973696f6e</w>
446f</w>
50616e</w>
466162
31383839</w>
73696e
657661</w>
4b656e6e656479</w>
56616e63
53616e74
4167726963756c
4c616e65</w>
6272696566</w>
736563726574</w>
6f737068
466f6f7462616c6c657273</w>
616e6573</w>
31383933</w>
617070726f707269
506f70756c61746564</w>
417175
616e74696e65</w>
456475636174696f6e616c</w>
666f7274756e
44656164</w>
4c6f7374</w>
6e65676174697665</w>
4c69766572706f6f6c</w>
4164656c
726567756c61726c79</w>
4d61796f72</w>
72656c6567
57696e646f7773</w>
72657475726e73</w>
756c61746564</w>
64726976657273</w>
636572656d6f6e79</w>
7374657273</w>
436f6e736572766174697665</w>
696c6573</w>
6e657572
61636964</w>
64657461696c73</w>
4672616e6b6c696e</w>
64616e67
4741</w>
5245
696d70726f7665</w>
4368656d
4d697373696f6e</w>
636f6d707574
736576656e7468</w>
686169</w>
446177
5472656174
7365637473</w>
546861696c616e64</w>
666f756e646174696f6e</w>
726f6e6963
6775617264</w>
416e6e61</w>
46726564</w>
5361726168</w>
7268
61696e74</w>
436f6d6d6f6e</w>
74696361</w>
46696e6e697368</w>
656e7465</w>
383030</w>
56616e636f75
7468726f
616476656e74
6167656e6379</w>
6964696e67</w>
696e6368</w>
4361726c6f73</w>
4272697374
696f70
476c6f62616c</w>
73657269
56616e636f75766572</w>
537072696e67</w>
57617273</w>
43726f776e</w>
666c6174</w>
6469737472696275746564</w>
47656e7573</w>
6166666563746564</w>
31383931</w>
416572
616e6e6f756e63
6f6772617068696373</w>
70617374
636f6e7175
656c656374726f6e6963</w>
6f636b73</w>
746563686e6971756573</w>
526967687473</w>
72656573</w>
416e7469
6469756d</w>
6f746963</w>
65786869626974696f6e</w>
696e6e696e6773</w>
ceb1
616c6973</w>
7279
48617274
6368696c64
536567
436f6c6c696e73</w>
436f6e737472756374696f6e</w>
66616972
323530</w>
5265636f7264</w>
41636164656d6963</w>
636f616c</w>
646573637269626573</w>
466c6f7261</w>
4853</w>
7479706963616c</w>
4461
5368616b
4c6f77
6368616e6e
7465656e7468</w>
656173696c79</w>
6173746572
7461636b
636f6d70657465</w>
65736973</w>
6571756976616c656e74</w>
6a75726973
7065746974696f6e</w>
54687573</w>
72756e6e6572</w>
656166
636176
436f6c6c656374696f6e</w>
617a61</w>
554e
64697374696e6374</w>
4646</w>
6f70706f7274756e697479</w>
726f79</w>
444e41</w>
696d61676573</w>
6e6f7461626c79</w>
6d65616e</w>
6669726564</w>
c3ad6e</w>
696d706f7274616e6365</w>
636c7573696f6e</w>
656d706c6f79656573</w>
67696e73</w>
73746570</w>
5468726f756768</w>
5072696d617279</w>
436f6e74696e
74656e616e6365</w>
706572736f6e73</w>
547261696e696e67</w>
736b696c6c73</w>
436f6d6d69737369
6c657373
636f6e73756d
4e616d
696e73756c61</w>
70726f</w>
4d617474686577</w>
617a7a
7261696e
4a617a7a</w>
6174657273</w>
436861726c6965</w>
756d696e
756d656e7473</w>
6372696d696e616c</w>
7375727669766564</w>
737472696e67</w>
416c66726564</w>
636c6173736966696564</w>
7061696e74696e6773</w>
64696d656e
536f6e
566567
617564696f</w>
636f6e7461696e</w>
7665727379</w>
737472696b65</w>
73746f726d</w>
676f77</w>
656e62757267</w>
6661766f72
7a656e</w>
7065646974696f6e</w>
42756666616c6f</w>
4d7568
49726f6e</w>
457175
657272
5361696e7473</w>
5761726e6572</w>
656e746f</w>
41726d656e69616e</w>
70726f746563746564</w>
6578747261</w>
4d69746368
4167656e6379</w>
70726f76696e6369616c</w>
65727261</w>
636f6c6c6170
6163636964656e74</w>
73686f72
7265616c6c79</w>
70686f746f6772617068
6872
536978</w>
3c</w>
4e484c</w>
61646d6974746564</w>
627265616b
436f6d6d756e697374</w>
707269657374</w>
70726568
7363686f6c617273</w>
5669656e6e61</w>
62616e6b73</w>
6f70657261746573</w>
446561
73617665</w>
70617468</w>
706f6c79
5053</w>
656c6c697465</w>
6163637572
4772616e64
6979
50657275</w>
626164</w>
446f776e
706f7274657273</w>
696666</w>
617263686165
70726f647563657273</w>
61696465</w>
5065616365</w>
6561726c69657374</w>
6c6179</w>
486f7573
4775696e6561</w>
6f626a65637473</w>
57696c64</w>
446973636f677261706879</w>
7374726574
457370
5249
5443</w>
416c62616e
68756d616e73</w>
42726f616463617374696e67</w>
646566696e
6170706c69636174696f6e73</w>
636175676874</w>
4c656769736c6174697665</w>
737572616e6365</w>
6672616d65</w>
646f63756d656e7473</w>
6672616e6368697365</w>
66696e65</w>
696e6374</w>
6469736369706c
5649</w>
657175616c</w>
6b6565706572</w>
4469736e6579</w>
53656374696f6e</w>
7665676574
66617368696f6e</w>
6369
726f7365</w>
6e617272
436172746572</w>
616c74696573</w>
696f6e616c6c79</w>
69636f70
7365636f6e6473</w>
4461696c79</w>
6c75
7265736964656e6365</w>
5365726269616e</w>
646f67</w>
626f617473</w>
4d61727368616c6c</w>
6d6172</w>
6c69737473</w>
6e65696768626f7572
7465726d696e7573</w>
4573
757267
73776974
616476616e6365</w>
50686f656e
446965</w>
47756172
6372657465</w>
7074
4469676974616c</w>
636f6e74726f7665727369
74696564</w>
7265706c
696d70726f76
7075726368617365</w>
5374616765</w>
47726168616d</w>
6d6978</w>
636c6173736963</w>
4261707469
416c62756d</w>
636f6e736f6c
626974
7370656374697665</w>
7369676e696e67</w>
6d696e696e67</w>
736372697074696f6e</w>
6261636b73</w>
617564</w>
76616c756573</w>
53757276
d0ba
4c6976
617070656172696e67</w>
c3a0</w>
48656164
74696d617465</w>
31383635</w>
31383838</w>
617474616e</w>
656765</w>
617272616e676564</w>
54656e</w>
626f</w>
6f6261</w>
6368616972</w>
6974656d73</w>
72656769737465726564</w>
766f63616c</w>
4b6f6c
6163636f6d6d6f64
707265736964656e7469616c</w>
67617468
6c69626572
c5be
506c616e
4c616e67
6973696f6e73</w>
6f6464</w>
736570617261746564</w>
536572626961</w>
4e53
726573746f726564</w>
7465616368657273</w>
726564756365</w>
6c697175
6c79696e67</w>
70726f636564
537475
617563
636f6e636c75646564</w>
526963686d6f6e64</w>
6974697665</w>
696e74656c6c6967656e6365</w>
3139323073</w>
436f6e6665646572
6174746163686564</w>
506f6c6974696373</w>
54616977616e</w>
54686572
64697365737461626c6973686564</w>
536576656e</w>
41646d6972
746973746963</w>
707572706f736573</w>
5068696c</w>
50617373
6d6f6c6563
57617264</w>
726567696d656e74</w>
536369656e7469
617267756564</w>
456c65
7265616c697479</w>
626f77</w>
636f7374
6368656e</w>
63616c6c696e67</w>
4d65616e
6f7273686970</w>
526f6e
506f72746c616e64</w>
72616e65616e</w>
696e6572</w>
7069636b</w>
736c6f77</w>
6973686d656e74</w>
416d617a
7061</w>
446566756e6374</w>
64656c6567
4c7564
486173
6f776e657273686970</w>
436f6e737469747574696f6e</w>
74686c79</w>
6f70706f73697465</w>
746865726170
437269636b6574</w>
747572696e67</w>
6f6e6e61</w>
31383836</w>
e1bb
707265646963
42726973746f6c</w>
6b6964
4361726962
656e62657267</w>
646172
6f73617572
31383830</w>
646563616465</w>
6d65657473</w>
676f6f6473</w>
7665746572
7061696e746564</w>
4672696564
656e726f6c6c
646174696e67</w>
6472756d
5368656c
7075626c69636174696f6e73</w>
69746174696f6e73</w>
70696e65</w>
4e4243</w>
477572
6d696c6c</w>
617474656e64</w>
69736f6c
626f726e65</w>
73746174696e67</w>
47756c66</w>
7375627374616e7469
6661636573</w>
6f6461</w>
4b617468
5353
77696e6773</w>
4c616e6775616765</w>
616c746879</w>
63697263756d
65746f776e</w>
7068696c6f736f706879</w>
6d61696e7461696e</w>
a2</w>
64616d61676564</w>
446570757479</w>
68756e64726564</w>
6c696e6b6564</w>
616e6e6f6e</w>
4c6173</w>
636b</w>
6e6f7468696e67</w>
c3b672
4e6570
61746368</w>
6b6579626f61726473</w>
43757272656e74</w>
4e6174696f6e
6d697373696f6e
696e74657265737473</w>
4576616e73</w>
7573657273</w>
4c61727279</w>
54617861</w>
6574696f6e</w>
566f63
616476616e74616765</w>
61636375736564</w>
50616765</w>
6167656e</w>
6d6167617a696e6573</w>
54797065</w>
4974
7765656b6c79</w>
31383631</w>
656d706c6f796d656e74</w>
4a6172
65796573</w>
746976697479</w>
416c6265727461</w>
616773</w>
43617468656472616c</w>
6563747572616c</w>
617361</w>
6c6967687473</w>
52616e64
696e686162
44656d6f6772617068696373</w>
706d</w>
697368657273</w>
656464696e67</w>
4c69</w>
434253</w>
7061696e74657273</w>
736563726574617279</w>
6469646e</w>
69656e</w>
4b65697468</w>
726573706f6e64
756e69766572736974696573</w>
73656e73
66696374696f6e616c</w>
696e617465</w>
696e69616e</w>
736973</w>
69617465</w>
4d616e68
657870657269656e636564</w>
4d6f72726973</w>
434f</w>
636f617374616c</w>
73746174656d656e74</w>
54726f706879</w>
416c6c69616e6365</w>
6964656173</w>
75746174696f6e</w>
7075626c697368696e67</w>
76656c</w>
636f6d706f736974696f6e</w>
7065746974
6368616e6e656c73</w>
41626572
657369
73686f77696e67</w>
43686169726d616e</w>
4c696761</w>
31383837</w>
54657374</w>
6a75
746572726f72
48696c
6f7267616e69736174696f6e</w>
49736c616d</w>
5243</w>
417474
636f6c6f6e69616c</w>
696e7374616c6c
436f6d6d756e69636174696f6e73</w>
41726b616e736173</w>
70686f6e65</w>
42616b6572</w>
61796572</w>
4f72616e6765</w>
476c6173676f77</w>
696e746572696f72</w>
646576696365</w>
657374616e74</w>
7472616974</w>
776879</w>
4146
736f6c6964</w>
6f746573</w>
6d6f74696f6e</w>
7261746573</w>
666f726d616c6c79</w>
7265647563
61646472657373</w>
72657175657374</w>
4469616d
647574696573</w>
63686f7365</w>
616e6761</w>
636f737473</w>
4272616e64
616e6e6976657273617279</w>
4e617a69</w>
6d656d6f72
74726970</w>
77617265</w>
726966
717569
4972616e69616e</w>
426f626279</w>
74696d73</w>
7265666572656e636573</w>
6368656d6963616c</w>
4d6574726f</w>
7a6573</w>
736f756e64747261636b</w>
6578616d706c6573</w>
64726976696e67</w>
43454f</w>
4d65646963696e65</w>
61746f6d
7261696e</w>
7669736564</w>
636f6c6c65676573</w>
43756261</w>
526176
6561736573</w>
4d696c616e</w>
526976657273</w>
61736869</w>
4576656e</w>
6a65</w>
427572656175</w>
70726169736564</w>
4d6564616c69737473</w>
5757
67656e646572</w>
7072656e
7573686564</w>
50726976617465</w>
6361727279696e67</w>
69616e
747a</w>
77696e65</w>
4f726967696e616c6c79</w>
7269646765</w>
7573637269
616861</w>
5465727279</w>
47726179</w>
73616c</w>
707269736573</w>
617373756d6564</w>
63617074757265</w>
72657461696e6564</w>
7473
31383834</w>
54687572
7a79</w>
67726f
6d696c65</w>
4e6164
4d61696e
6a6f75726e616c</w>
417574686f72697479</w>
656665</w>
726f6f66</w>
4f6e6c696e65</w>
706172746e657273686970</w>
656c64
64657369676e73</w>
636f7573
31383632</w>
486f6e6f72</w>
696d70726973
6c6f62
506f7374
63616e64696461746573</w>
726564
616e636572</w>
63616c63756c
4d6164726964</w>
44616b6f7461</w>
736b61</w>
41666768616e
65636b
556e6974</w>
776174657273</w>
757472
6f6e796d</w>
62696767657374</w>
546f776572</w>
6c616e64696e67</w>
636f75727473</w>
476f7468
436f6e76656e74696f6e</w>
67656e657261</w>
646f776e746f776e</w>
7072697a65</w>
6168656164</w>
73706563696d
65787472656d656c79</w>
73686f7073</w>
697475616c</w>
507261
4e656272
796f6e</w>
4c617465</w>
636f6e747269627574696f6e73</w>
61696e7473</w>
636f6d6d6974746564</w>
666163746f7273</w>
696e737472756d656e7473</w>
4a656e6e
436f6c756d
4579
736f696c</w>
43656e737573</w>
6f6c6f</w>
547261696c</w>
41666768616e697374616e</w>
77617665</w>
636f616368696e67</w>
426f6d62
5374616666</w>
6167616e</w>
6368616e6365</w>
72696465</w>
436f6d70616e696573</w>
776f756e646564</w>
4d45
6d797374
436c6173736963</w>
6e6176616c</w>
6469617279</w>
456e64656d
42656e6a
62726967
61646f77</w>
416d656e646d656e74</w>
446963
42656c6c
416d706869
53796d70686f6e79</w>
736b696e</w>
4c6574</w>
6d656173757265</w>
64656c697665726564</w>
73746f70706564</w>
6669786564</w>
4d6967
68656174</w>
4d61696e65</w>
64656772656573</w>
6e6f726d
4352</w>
636f6d6d756e69636174696f6e</w>
47726561746572</w>
46726f6e74</w>
ac</w>
70696374757265</w>
5765656b6c79</w>
7361746973
70697463686564</w>
4e65627261736b61</w>
6f626a656374</w>
4f6b
4a75646765</w>
76696e
4469636b</w>
6469766f72
527562
59616d
4368656c
70657268617073</w>
4d44</w>
65766564</w>
42616e676c6164657368</w>
73746f72616765</w>
64726166746564</w>
43617264696e616c73</w>
53697465</w>
4e6f7661</w>
666974</w>
48756e746572</w>
466174686572</w>
7b</w>
446179
4265726b
6b656570696e67</w>
54686561746572</w>
7061726b73</w>
726f77696e67</w>
656e74696e67</w>
6a757374696365</w>
6361726473</w>
6d616b6572</w>
52696f</w>
4c656e
6d65646963696e65</w>
426f726f756768</w>
4d656469746572
617573</w>
6c6962
70726f6e
416172
64656d616e64</w>
626f6e65</w>
31383831</w>
746f72696573</w>
43617269626265616e</w>
62726f6164</w>
436f73
66726565646f6d</w>
73616e63
6174746f72
466f6f64</w>
6573746976616c73</w>
31383634</w>
656e646f72
657665</w>
456375
77616c6b</w>
4f726967696e616c</w>
616e6b73</w>
626c617374</w>
726563657074696f6e</w>
4c697465726174757265</w>
68616972</w>
707269736f6e657273</w>
617373617373
6d616e6761</w>
636d</w>
5261696e
72656a6563746564</w>
627564676574</w>
74696f6e696e67</w>
56696b
4d756e69636970616c697479</w>
7a6572</w>
706572696f72</w>
7061727469636970617465</w>
636f766572616765</w>
73656173</w>
737565</w>
526963
62626262</w>
6f7468657277697365</w>
6964657273</w>
54686972
7065616b6564</w>
63617061626c65</w>
4d616e68617474616e</w>
6265686176696f72</w>
67616e67</w>
64657369676e6572</w>
4a61637175
4c474254</w>
31383633</w>
737461676573</w>
7265616374696f6e</w>
656e6572</w>
756363
6c6170</w>
616e697374</w>
616d6d616c73</w>
7265706c6163656d656e74</w>
5365636f6e64617279</w>
436f6e736572766174696f6e</w>
6d6574657273</w>
726f7567686c79</w>
5075626c69636174696f6e73</w>
626c696e67</w>
6173736573</w>
486177616969</w>
31383730</w>
6172726976616c</w>
4a6f6e617468616e</w>
61636f7573746963</w>
676f6e65</w>
6578656375746564</w>
636f6e7472617374</w>
5a6f6e65</w>
66697368696e67</w>
436c65
7574696f6e73</w>
636f6d6d697373696f6e</w>
4269626c65</w>
52616365</w>
57726573746c696e67</w>
42656e6e
526f74
4164646974696f6e616c6c79</w>
456e64656d6963</w>
436861727473</w>
696c7374</w>
576f726b</w>
7375676765737473</w>
74616e6b</w>
6669656c646572</w>
c5ab
62616e64
6d65617375726573</w>
416c61736b61</w>
4b61726c</w>
617474657273</w>
4a616d61
61626164</w>
61646170746174696f6e</w>
57617272656e</w>
737461626c65</w>
747562
31383832</w>
3139343073</w>
74616e74</w>
c3bc6e
756b69</w>
506f6e
706872
e28892</w>
506176
64656d6f6372
646961676e
446566656e6365</w>
696369616c</w>
6c616e65</w>
4d65646974657272616e65616e</w>
436f756e74</w>
656e63696e67</w>
4b756d
576f
616c656d</w>
6163636f6d70616e696564</w>
626162
756368
627573696e6573736d616e</w>
6c6970
73747275636b</w>
4b656e</w>
696e6b
636c656172
45636f6e6f6d6963</w>
476c656e
666f72647368697265</w>
6c6961</w>
4d6f6e64
706f656d</w>
6c656773</w>
417261626963</w>
6464656e</w>
4d69746368656c6c</w>
61637265</w>
706f7765726564</w>
6f7263686573747261</w>
677261646573</w>
6c6561726e6564</w>
666662626262</w>
7362757267</w>
636f6e7374697475656e6379</w>
666c6f7773</w>
6170706f696e746d656e74</w>
616464696e67</w>
737461796564</w>
4f7267616e697a6174696f6e</w>
56697267696e</w>
6c6963656e736564</w>
6f636375706174696f6e</w>
737472696573</w>
6d6564696576616c</w>
4e65696c</w>
506f6c6963
636f6c6c656374696f6e73</w>
626f7264657273</w>
4441</w>
66616e</w>
636f6e74657374</w>
42757368</w>
69656c64</w>
4e6f6e</w>
756e6465727374616e64696e67</w>
617373697374616e6365</w>
7369676e69666963616e746c79</w>
536b79</w>
42617262617261</w>
6368616d
73656573</w>
4469737472696275
6d616e75666163747572696e67</w>
636f6c6c61626f726174696f6e</w>
526f62696e</w>
61726f</w>
646966666572656e6365</w>
73706f6b656e</w>
50756c
7072657061726564</w>
4c696d69746564</w>
6e6f727468
50656c
6c6974
696d6167
74657374696e67</w>
5261696c</w>
5363686f6c
46726f
73686f6f74696e67</w>
41726f756e64</w>
736f72</w>
48696c6c
426167
63726973
697065
616e7465</w>
746f776e73686970</w>
4e6f72666f6c6b</w>
616e6e69</w>
31303030</w>
53637265
566173
69636961</w>
42616b
72657175697265</w>
45646974696f6e</w>
5361736b
6e657773706170657273</w>
546561
736576657265</w>
77656172</w>
4b696e6773</w>
6c656769736c6174696f6e</w>
4a6179</w>
a6</w>
6a756d
72616e65</w>
46616c6c73</w>
6672657175656e6379</w>
45617374
48617070
72657374617572616e74</w>
6e6f6e65</w>
656e746572696e67</w>
53636172
436f6e74726f6c</w>
42726973
50726566656374757265</w>
73756d</w>
737563636573736f72</w>
66696c6d
444a</w>
666c6167</w>
637269746963</w>
6163636f6d706c
436f737461</w>
6d6f62696c65</w>
77696c64</w>
636879</w>
636f6d696373</w>
4472616674</w>
557262616e</w>
706f70756c6172697479</w>
6d656d62657273686970</w>
66696c6d6564</w>
6379636c6f70
5265706f7274</w>
696e79</w>
726571756972656d656e7473</w>
696c6974
4b6f73
c899
76697375616c</w>
56656e657a75656c61</w>
4d6f6e67
67726f776e</w>
616d6174657572</w>
466f7572
61626c6564</w>
7261696c726f6164</w>
67617264656e</w>
456779707469616e</w>
666163746f72</w>
686f72736573</w>
70657263757373696f6e</w>
637265646974</w>
76697369626c65</w>
62656c6f6e676564</w>
6368616e67696e67</w>
6d6f756e7461696e73</w>
726569676e</w>
63616d70616967
526567756c6174696f6e73</w>
57696e6e657273</w>
4d43</w>
65646f</w>
4e6576616461</w>
747261646564</w>
45787072657373</w>
4564646965</w>
69656e6379</w>
69737461</w>
4772616465</w>
313230</w>
65786563
6572617465</w>
696e6174696f6e73</w>
736368656d65</w>
6f69</w>
696e737469747574696f6e</w>
646175676874657273</w>
5349
44617973</w>
63686f6f6c
6d61726b657473</w>
6672756974</w>
7265706c6163696e67</w>
436f62
73746963
47756974
6874747073</w>
426164</w>
646566656174696e67</w>
6571756970706564</w>
506572666f726d616e
646f6c6c
506172697368</w>
696e7465726573746564</w>
42656e6a616d696e</w>
73747265657473</w>
7268797468
4a65727573
656674</w>
73656e64</w>
616469</w>
6e61747572
766964656f73</w>
466966
6f6c69</w>
746865746963</w>
4e6174757265</w>
7061747465726e</w>
656e676572</w>
72657370656374</w>
4578616d
6369746564</w>
706f72747261796564</w>
416e6369656e74</w>
466c656574</w>
526573756c7473</w>
64697363</w>
6d6564616c73</w>
436f6e74656d706f72617279</w>
617574686f7273</w>
436c6966
6573646179</w>
44656e6e6973</w>
31383738</w>
636f6d6d6974
656e73757265</w>
627265616b696e67</w>
7375626a65637473</w>
696d61</w>
6772617665</w>
636c6572
6365727469
656c6473</w>
746563686e69717565</w>
63686170746572</w>
c3a973</w>
31383736</w>
7075626c6963
4761627269
6f66666572696e67</w>
4669747a
636172746f
546563686e6963616c</w>
4176696174696f6e</w>
66696c6c</w>
64726f70</w>
726976616c</w>
436f6d7075746572</w>
6e6172726f77</w>
6576616c
61726368697665</w>
4b6e6967687473</w>
53616c76
62726f616463617374696e67</w>
4c696f6e73</w>
64656d6f6c6973686564</w>
6272616e63686573</w>
436164
4a65727573616c656d</w>
546173
696e667261737472756374757265</w>
6d6f646966696564</w>
54726164
43616e616c</w>
726978</w>
4d6974
5265636970
5073796368
657573</w>
4e6963686f6c6173</w>
456c656374726963</w>
486176
66696768746572</w>
68617a
6167656e63696573</w>
6f6b61</w>
524146</w>
4265726e617264</w>
6162736f72
706172616c6c656c</w>
7375727665
4472697665</w>
414c
686f74</w>
44656e766572</w>
5061726b6572</w>
31383833</w>
4368696c64</w>
64657465726d696e65</w>
66696c6564</w>
5475726e6572</w>
616c636f68
b9</w>
436861726c6f747465</w>
4c65656473</w>
50726164
7377696d6d696e67</w>
6174686c65746573</w>
536964
656c65766174696f6e</w>
31383637</w>
6f70686f6e65</w>
636f6e64756374</w>
726570726573656e7473</w>
626f7572</w>
c3a87265</w>
4d6f76656d656e74</w>
706f657473</w>
616963</w>
416c696365</w>
646966666572656e636573</w>
707261637469636573</w>
74616c6c</w>
486f727365</w>
4543</w>
726963
50686f656e6978</w>
636c6f73757265</w>
667269656e646c79</w>
696e766573746d656e74</w>
736572</w>
4272616e6368</w>
656c656d656e74</w>
647261
436174686f6c
596f75
73706f6e736f726564</w>
416374696f6e</w>
706170
436f6f706572</w>
696e6469
6a7564676573</w>
68616e646564</w>
5265766f6c
757073</w>
4661726d</w>
67726f77</w>
686f72726f72</w>
63726564697473</w>
616a</w>
506f6c79
656469
6f6269
46726565646f6d</w>
5069637475726573</w>
6f6469
6d617465</w>
54756c
6172696f</w>
72656c6174697665</w>
486973
6f736564</w>
76656c
63656c65627261746564</w>
686f7370
65787072657373696f6e</w>
4a69
4353</w>
48756768</w>
6a6f75726e616c69737473</w>
617474656e64
657374796c65</w>
566963746f7269616e</w>
447562
4164656c61696465</w>
746872656174</w>
63756c746976
726573706f6e736962696c697479</w>
76657373656c73</w>
7369676874</w>
6576656e696e67</w>
7075626c6973686572</w>
31383735</w>
54656e
53616b
696b61</w>
7465727269746f72696573</w>
6772616e
5472696e697479</w>
70656e616c7479</w>
526f6e</w>
616e696d65</w>
68616e67
6c6f73736573</w>
706f70756c6174696f6e73</w>
31383638</w>
696e6e</w>
7472616e73706f72746174696f6e</w>
656e74657273</w>
436f6e7374697475
53686f7274
4c6c6f79
737469
6c6567656e
4861727269736f6e</w>
4775696c
31383739</w>
53656e61746f72</w>
424d
7371756164726f6e</w>
6f63636173696f6e616c6c79</w>
73736f6e</w>
54656368</w>
736f6d6577686174</w>
74656d706f72
65747469</w>
537072696e67
65786973746564</w>
4d65616e7768696c65</w>
46696768746572</w>
636f6e76656e
7265717569726573</w>
31383731</w>
686f</w>
5269636f</w>
6c696e67746f6e</w>
636f6e6365726e73</w>
56696c6c61676573</w>
546f75726e616d656e74</w>
6d6f737068
637269746963697a6564</w>
736565696e67</w>
6865726f</w>
6179616e</w>
6f676e
4c6167
4275636b
506574657273
74656573</w>
726f73</w>
696e6a7572696573</w>
6964656e</w>
53746174
67656e7265</w>
6f6c6961</w>
736369656e7469737473</w>
7369676e73</w>
6465616c
6f74797065</w>
4c756973</w>
506f6d
746f6c
42616279</w>
456e6379636c6f70
72616e6b696e67</w>
6272696e67696e67</w>
4d617373</w>
496e6469616e
457468696f70
436f76
6174696573</w>
5365726965</w>
7072696d65</w>
546f6e
4d61636564
73636f7065</w>
697274</w>
6368657373</w>
4d61676963</w>
496c6c
4d617276656c</w>
31383734</w>
4b756e
5053
656e7465727461696e6d656e74</w>
6c6c</w>
776f6f64656e</w>
636976696c
627261696e</w>
487564736f6e</w>
4368616e64
6f756c</w>
636f6e736572766174696f6e</w>
537469
666566
76616c75
666f7263656d656e74</w>
65706572</w>
5472656173
726f6d616e746963</w>
46697368</w>
7365676d656e74</w>
556e6976657273616c</w>
626561757469
53797374656d73</w>
41727469737473</w>
6d65726365</w>
776967</w>
6e6174696f6e73</w>
61737065637473</w>
4f6c69766572</w>
7363686f6c6172</w>
6173736572
6d6f756e746564</w>
76656d656e74</w>
68656c70696e67</w>
4d7568616d6d6164</w>
6f6265</w>
736f6c64696572</w>
7175657374696f6e73</w>
536f6d6572
6d61696e74656e616e6365</w>
636f6d6d656d6f72
46616c6c</w>
4361706974616c</w>
696e6e6f76
6c61626f72</w>
756461</w>
637269636b6574657273</w>
4576657279
646f6d61696e</w>
5068696c6f736f7068
7465726e73</w>
6b6d
686f757365686f6c6473</w>
676179</w>
4f626572
73686966
6d6f6465</w>
70726f6665737369
447265616d</w>
6c657962616c6c</w>
4d6f64656c</w>
7265666f726d</w>
56616e
5068696c697070696e65</w>
63617468
706f6c6963696573</w>
31383630</w>
626f756e64617279</w>
6865726974616765</w>
4574
636c617373696669636174696f6e</w>
696e737472756d656e74616c</w>
626973686f7073</w>
64796e616d
6a6f6273</w>
506c6179</w>
70726f706572</w>
70697463686572</w>
736861726573</w>
466c69676874</w>
74686f757365</w>
61636c65</w>
5061696e
6772616e64</w>
57696e</w>
63696c6c
73616665</w>
486974
7461736b</w>
6c6f6e67657374</w>
7475726e696e67</w>
5a696d
6167726963756c74757265</w>
706c617465</w>
636f6d706f6e656e7473</w>
6163636f72
64726976656e</w>
6368616c6c656e6765</w>
706f656d73</w>
636f6e766963746564</w>
666566656665</w>
73657175656e746c79</w>
31383732</w>
4d53
656967687468</w>
76696374696d73</w>
737065616b</w>
656e74696f6e616c</w>
616472
6f646765</w>
426c75
616c6974696f6e</w>
31383737</w>
6b6572
546869
4e6f7264
636f6e74726f7665727379</w>
417265</w>
7469636564</w>
766f6c756d6573</w>
757269</w>
61626f6c
65616e73</w>
696e646963617465</w>
68756765</w>
636f6e74657874</w>
7772657374
487573
4261726f6e6574</w>
7465726d696e616c</w>
43726f617469616e</w>
6966696564</w>
706170657273</w>
636f6d706c6574696f6e</w>
6f706f6c
696469
4d75736c696d73</w>
6d696e616c</w>
556e6c696b65</w>
74686f7573616e6473</w>
64656275746564</w>
6f74746564</w>
72656e6577
746572696e67</w>
426c6f
576f6e
4d616469736f6e</w>
73686970
4275646468697374</w>
436f726b</w>
73746f776e</w>
4162626579</w>
616d7061</w>
666c6f77657273</w>
636f6c6f7572</w>
69717565</w>
6f746879</w>
666f726d6174696f6e73</w>
617573
64657669636573</w>
6f7074696f6e</w>
426573
47696c6c
4c61626f72</w>
7265736f6c
5374616e64617264</w>
576562</w>
63726974696369736d</w>
61766572</w>
636f6e76696e63
52657374
57697468696e</w>
636f72726573706f6e
64657363656e64
616767726567
6f6d696e67</w>
636f6e74696e75696e67</w>
7368656c
48616c6c
6f7264696e617279</w>
436f6465</w>
c3aa
656c6963</w>
72616469
67616c
506f70756c6174696f6e</w>
4372616967</w>
7265637265
726164</w>
6c656166</w>
636f7573696e</w>
757368696e67</w>
706c61796f666673</w>
4f7065726174696f6e73</w>
466163756c7479</w>
74726561746564</w>
50726f76696e63
616e6e75616c6c79</w>
736f6c766564</w>
6761726961</w>
696e7473</w>
6167656e7473</w>
4c616b
426f7572
656e736573</w>
6672657368
4539</w>
59616c65</w>
526f6265727473</w>
6f766f</w>
7072656d6965726564</w>
6269727468
7265696e
62616e65</w>
726172
50726f66696c65</w>
6163746976697374</w>
666f726d6573
4c6c6f7964</w>
41726368626973686f70</w>
666f726d657346616d696c79</w>
63686170656c</w>
69646c79</w>
706c61696e</w>
426f67
736f757468
737572726f756e646564</w>
537072696e6773</w>
31383733</w>
6d6f76656d656e7473</w>
707265736572766564</w>
4368616c6c656e6765</w>
6576696c6c65</w>
6772617068</w>
417468656e73</w>
66696e64696e67</w>
42797a
373030</w>
637269736973</w>
53706563696573</w>
526f75
70656c
4d61726b
4c7578
756c6e6572
62656172
73656e74656e636564</w>
4d617468
6c65746f6e</w>
6269616e73</w>
467269656e6473</w>
656d61</w>
616469
436f75
313031</w>
6f726961</w>
31383636</w>
6465707468</w>
616273
4c616e6b61</w>
72656c6561736573</w>
6d6f746f72</w>
706861</w>
70726f736563
616371756973
6f6c6573</w>
776865656c</w>
6d616e7573637269
61666661697273</w>
4e616e
56696e63656e74</w>
697361</w>
41464c</w>
746f756368646f776e</w>
45394539
453945394539</w>
48696e6475</w>
70617469656e74</w>
70726f636573736573</w>
566974
656c6967
4861726f6c64</w>
6f706c6573</w>
437269746963616c</w>
6465636c696e65</w>
72657a</w>
656c6576656e</w>
64697374696e67756973686564</w>
48616e6e
797369
70657263656e74
6d656469617465</w>
756e636c65</w>
6361737473</w>
6f726f7573</w>
73636865</w>
736178
6574696e6773</w>
75646573</w>
53796c
62696f677261706879</w>
6265616368</w>
417a657262
736f6d656f6e65</w>
616666696c6961746564</w>
4e7572
6661697468</w>
7169</w>
76697369746f7273</w>
636172626f6e</w>
7265736964656e74</w>
636f73</w>
657863656c6c
5065727369616e</w>
556e74696c</w>
487a</w>
676965</w>
426172</w>
72656c6174696f6e</w>
436f6f6b</w>
56696f6c
45636f6e6f6d79</w>
4450</w>
4350
64696e</w>
5269636b</w>
427972
6d6978
436172</w>
7a65
417a6572626169
4445
7769647468</w>
776175
757474
73756963696465</w>
45637561646f72</w>
636569766564</w>
63616d657261</w>
76697665</w>
e280a2</w>
53686566
5468656f64
69646179</w>
7374726174656779</w>
4342
616d6d6172</w>
46726573
67756172
42617263656c
64656e73697479</w>
7465656e
536978
496e6469616e61706f6c6973</w>
546f6d6d79</w>
636f756e74696573</w>
61696e646572</w>
6c6173746564</w>
4e65696768
4c53
44696e
6465636c696e6564</w>
6c6561726e</w>
696e7573</w>
546163
416e7469</w>
5665726d6f6e74</w>
6964656e
746573
73746564</w>
636f6e6365726e</w>
6b6e657373</w>
62726577</w>
7261697365</w>
73756666696369656e74</w>
61636869657665</w>
69666572</w>
466f726d
636861</w>
696e7472
42756c6761726961</w>
66696c65</w>
4d6f74686572</w>
636f6e7375
46696374696f6e616c</w>
6368696c64686f6f64</w>
77696e646f77</w>
546f70
736f7274</w>
416e616c
706572736f6e616c697479</w>
636f6e736964657261626c65</w>
636f6e7374616e74</w>
707265676e
43726f61746961</w>
6578706c61696e6564</w>
526570726573656e746174697665</w>
70726f6c
547265617479</w>
486f7065</w>
696e7374616e6365</w>
417373697374616e74</w>
706f6c65</w>
6c69657574656e616e74</w>
6c696d6974</w>
657373697665</w>
67756974617273</w>
6c616e</w>
47726567</w>
616d7073</w>
4d756e69636970616c</w>
43687269737469616e697479</w>
73657175656e636573</w>
756e64657267726f756e64</w>
636f6d6d756e65</w>
5253</w>
617272616e67656d656e74</w>
617274696c6c657279</w>
4f7474617761</w>
4e61706f6c
426f68
526563697069656e7473</w>
4777
506572666f726d616e6365</w>
706c6174666f726d73</w>
736563757265</w>
537567
537a
536d616c6c</w>
686973746f7269616e73</w>
4e6174696f6e</w>
626963
776562
427573</w>
646570757479</w>
6f77736b69</w>
6b656573</w>
736c6579</w>
616e7573</w>
42756c67617269616e</w>
63656e74657273</w>
74696c697479</w>
467269646179</w>
72657075746174696f6e</w>
416d73746572
417263686974656374757265</w>
637570</w>
66697265
64726177696e67</w>
4164646974696f6e616c</w>
616e6e6572</w>
656d657267656e6379</w>
696e766f6c76656d656e74</w>
45646d6f6e
6d657373616765</w>
74656c6c</w>
70686f6e
61636f6e</w>
536f70
756c617465</w>
4b6974
6c756e
736965</w>
3330
42726577
46696c6970
7761756b6565</w>
72656d61696e646572</w>
6c69746572616379</w>
42616368656c6f72</w>
4e59
61636365737369
6c6963656e7365</w>
6469736561736573</w>
72656275696c74</w>
6f6d656e
7374616e
726573637565</w>
7974
6568</w>
c5a0
696c6c6567616c</w>
656e6e65</w>
546f62
646f7266</w>
c584
626f74
53747564656e7473</w>
656c6c656374
726f6f7473</w>
6561727468
65676773</w>
73757370656e646564</w>
44656c6869</w>
5456
476574</w>
506f70</w>
416c7465726e
786f6e</w>
4469636b
61746f6e</w>
53656c6563746564</w>
446561746873</w>
44616e6e79</w>
686172</w>
534f
696e666c
436f6e74
70726f706f73616c</w>
6573746f6e65</w>
4d61726b6574</w>
657361</w>
45647761726473</w>
476f6e7a
4578706c
646f63756d656e74</w>
e0a6
6d616e6e6572</w>
506f70
52616c7068</w>
706c6173
5073</w>
6a69
496e6469766964
7469636970
616e63656c6c
416e67656c73</w>
7572726963616e65</w>
646570617274757265</w>
48616e73</w>
72656c696566</w>
676175
6769</w>
70726f63657373696e67</w>
4d696c7761756b6565</w>
617273686970</w>
766f6c63616e
576562
6467
7175616c696679696e67</w>
637269636b65746572</w>
4174746f72
766f69636564</w>
4953</w>
666163696e67</w>
66696369616c</w>
48657262657274</w>
6272656564696e67</w>
50727573
4b6579</w>
53696e676c65</w>
416d7374657264616d</w>
65776f726b</w>
616c69736564</w>
70686f746f677261706879</w>
5445
617070726f707269617465</w>
616e646572
46696e65</w>
41727469636c65</w>
6f6c6473</w>
656e636572</w>
68617070656e6564</w>
626573
617070726f76616c</w>
6172746973746963</w>
696e666c75656e7469616c</w>
436174686572696e65</w>
50726164657368</w>
66656d696e
7472696265</w>
447261676f6e</w>
5761727269
636c61696d696e67</w>
636f6d7065746974697665</w>
6a7572697364696374696f6e</w>
636f6c756d6e</w>
6964656c
526f77
57616c6c</w>
426176
73656564</w>
737465616d</w>
6173696e676c79</w>
50617274
4d656469
63697263756974</w>
75636b73</w>
7072656164</w>
4c6567616379</w>
4e617368
4172656e61</w>
636f6c64</w>
73656c</w>
43726f7373
65617379</w>
737572766579</w>
696e64696361746564</w>
7569</w>
5465727269746f7279</w>
436f6d6d6f6e73</w>
6f70696e696f6e</w>
68656c69636f70
536563726574</w>
4169726372616674</w>
436f6c64</w>
526166
666174
4561676c6573</w>
4369
6577616e</w>
6d617468</w>
4c45
477579</w>
466967
4e4f
676f6d
6661766f72</w>
65787065646974696f6e</w>
4d617374657273</w>
6d696e696d756d</w>
73757267657279</w>
536865666669656c64</w>
6570696e67</w>
5061726b
4e756d626572</w>
426c6f6f64</w>
4f616b6c616e64</w>
6574617279</w>
686f6f6473</w>
4672616ec3a7
656e746f6e</w>
6665656c</w>
42617263656c6f6e61</w>
62696e</w>
776f726e</w>
73636172</w>
666f726d657273</w>
666c6f7261</w>
61636865</w>
70726f67726573
697a6174696f6e73</w>
707269736564</w>
616a61</w>
436f616368</w>
467574757265</w>
6573636f72
46696c6d6f677261706879</w>
4f766572616c6c</w>
707379
5061636b
c381
646570656e64696e67</w>
636c616e</w>
31383639</w>
62726964676573</w>
457874
4dc3a9
6d6974
636f6e7369646572</w>
537573616e</w>
616e797468696e67</w>
576167
48656c656e</w>
746f6e73</w>
6f63636173696f6e73</w>
76657373656c</w>
50726f63
4469766973
43686170746572</w>
70726f6772657373</w>
4a6566666572736f6e</w>
646562617465</w>
61737361756c74</w>
53686972
526f67657273</w>
4d6f766965</w>
53746576656e</w>
6472656473</w>
6d6963</w>
636f6e74726f7665727369616c</w>
6874
416e67656c</w>
75746564</w>
727562
576572
4261726e
4b6170
5741</w>
7a69</w>
6f756e636564</w>
6d756e64</w>
70657263656e74616765</w>
7475726e
6d61726b6574696e67</w>
436c696e746f6e</w>
656d696772616e7473</w>
6772616e64666174686572</w>
506f65747279</w>
5254</w>
47696c62657274</w>
53756c6c69
7465737473</w>
686f6e6f7273</w>
4772616d
636f6e6372657465</w>
73697a6564</w>
47617263
536963
64656e696564</w>
6d696e697374657273</w>
636b
4d61636b
61707065616c</w>
646f63746f72</w>
766f6972</w>
6173736f6369617465</w>
62656e65666974</w>
6c61
707265646563
636874</w>
416c69
6169676e</w>
7265636570
656c696d696e61746564</w>
454d
737572766976696e67</w>
61746963616c6c79</w>
67656f6e</w>
576573
4d634b
4d756e696368</w>
6f636b6564</w>
62656175746966756c</w>
75697473</w>
7573746572</w>
44617461</w>
617373697374</w>
656166746572</w>
4272696768
426f78</w>
65776572</w>
72696368
6566666563746976656c79</w>
797374616c</w>
7369646564</w>
686f
4d6f746f72
6164756c7473</w>
6174746f726e6579</w>
736174656c6c697465</w>
656b696e67</w>
4d6f6e74656e
6163636f756e7473</w>
537475617274</w>
496e647573747269616c</w>
456c6c69
6c617779657273</w>
4942
736f6674</w>
6c61626f72
696e74726f647563
626c6f636b73</w>
4e6577636173746c65</w>
69736d73</w>
43616c6c
486f6e64
4265726b656c6579</w>
c3b377</w>
7265747265
746f6f6c73</w>
677261646564</w>
7465787473</w>
4261696c
686965</w>
486562726577</w>
66756e64</w>
6e6574776f726b73</w>
486972
4a6f6e</w>
74696c6573</w>
6d61727469616c</w>
4272697362616e65</w>
697068
5665676173</w>
7374726f6e676c79</w>
6170706172656e746c79</w>
636f6d7065746974
6879706f
48756768
6d696e</w>
617373656d626c79</w>
72616262
456e7669726f6e6d656e74616c</w>
647562
6e616d656e7473</w>
72656c6f6361746564</w>
3530
696c696e67</w>
4f6273657276
487574
6361626c65</w>
417263686165
436976
436c696d
696e6372656173696e676c79</w>
75617465</w>
65726e616c</w>
646f6d696e616e74</w>
616c6c65676564</w>
6477
6861626974617473</w>
6e65757472
59616e6b656573</w>
416d62617373
46696374696f6e</w>
536965727261</w>
657869737473</w>
d0bb
414c</w>
6b696e6773</w>
6e61766967
4d756e69636970616c6974696573</w>
5269676874</w>
4d6978</w>
476f6c66</w>
666573746976616c73</w>
666178</w>
4379636c
44616d65</w>
6d696e696d
6573686970</w>
6172636879</w>
426f64
617374726f
6a6f75726e6579</w>
4d617468656d61746963
626f6c
7761746368</w>
4e696765726961</w>
666c6564</w>
616363657074</w>
66656564</w>
64697368</w>
64697365737461626c6973686d656e7473</w>
4e616d65</w>
61636564</w>
63726f73736573</w>
44656c6177617265</w>
707574
70656e73696f6e</w>
446973747269627574696f6e</w>
50657465</w>
7375626d6172696e65</w>
5453</w>
5975
74656e757265</w>
53756c6c6976616e</w>
726570616972</w>
7374657073</w>
31383530</w>
6372617368</w>
53c3a36f</w>
66616e74617379</w>
7069746368</w>
536f756c</w>
526f6c
686f70</w>
4d696e6f72</w>
61747472696275746564</w>
7669736974696e67</w>
70726f6d70
73756e67</w>
65737472
536164
646f6e61746564</w>
66657273</w>
6d6978696e67</w>
52656c65617365</w>
7a6f</w>
736574746c656d656e7473</w>
737567
656d626172
4c6562616e6f6e</w>
6f7973</w>
766973</w>
4d7572706879</w>
5a65
70617274696369706174696f6e</w>
46616972</w>
7769646573
657870657269656e636573</w>
6372696d6573</w>
4d6f6e74656e656772
414e</w>
48656d
6b6172
6f7065726174696f6e616c</w>
6578706f73
5650</w>
747573</w>
496e6e
686f6c6d</w>
636f7079</w>
62616e646564</w>
436f6c756d627573</w>
737069726974</w>
486f6c6c616e64</w>
746869727479</w>
796f756e67657374</w>
696e7465677261746564</w>
4275746c6572</w>
61766f
486f62
56696c
4a61636f62</w>
41737472
6d617373697665</w>
42696c
7769</w>
756e7375636365737366756c</w>
6f7574707574</w>
756e757375616c</w>
6d6f76696573</w>
53636f
646566696e6974696f6e</w>
636f72727570
746f75726564</w>
636f6e</w>
436f6c6c6567
61746d6f737068
596f73
6164657273</w>
62696c
53747564656e74</w>
4b6c65
426973
6174696f6e616c6c79</w>
5869
63726f776e</w>
4d7574
73706972697475616c</w>
41726368697665</w>
6c6f63616c6c79</w>
616d6f6e67
70726568656e73697665</w>
6e6f726d616c6c79</w>
6261736573</w>
636861726163746572697374696373</w>
706572696f6473</w>
7768696c7374</w>
496e7374656164</w>
616374697661746564</w>
69766572</w>
4a756e63
686f6e6f7572</w>
416c6f6e67</w>
6465706c6f796564</w>
5858
6d797468
696e73706563
476f6f676c65</w>
657572
656e6465726564</w>
6f727473</w>
31383539</w>
6f6d6d
77686572656173</w>
65766572797468696e67</w>
61706573</w>
53696b
46756e64</w>
4d6574686f64
6e67</w>
696e7465726368616e6765</w>
61726d6163
4175636b
616273656e6365</w>
31383537</w>
726f756e6473</w>
455241</w>
6f6e796d6f7573</w>
6465737472756374696f6e</w>
506f6c696379</w>
5065727279</w>
6164766572746973696e67</w>
79636c
4465726279</w>
617272657374</w>
6772616e74</w>
7069636b6564</w>
696e66616e747279</w>
506564726f</w>
52756e</w>
4175636b6c616e64</w>
53696d696c
4446</w>
50697261746573</w>
43687269737469616e73</w>
73756274726f706963616c</w>
706f73746564</w>
57696e6e
7573656e</w>
5065616b</w>
61686e</w>
646973636f76657279</w>
61706172746d656e74</w>
6d6f6e617374657279</w>
536c65
5361756469</w>
66756e646564</w>
79776569676874</w>
696e647563746564</w>
61747261</w>
457069736f6465</w>
656f766572</w>
6c616e647363617065</w>
706172616d
6265727279</w>
48656c6c
6472756d6d6572</w>
72656c6174696f6e7368697073</w>
76696577657273</w>
636174</w>
63796c696e
61747472616374696f6e73</w>
73706f7274696e67</w>
636f756e746572</w>
646f6d696e61746564</w>
546f75
646566656e6365</w>
656f75736c79</w>
67726561746c79</w>
69646f</w>
6c696e6775
626c6564</w>
7265636f6d6d656e646564</w>
53746f726d</w>
697373696f6e73</w>
4472616d61</w>
65646963
7374796c6573</w>
706c61796f6666</w>
5370656369
50726f64756374696f6e73</w>
6c657465</w>
566c6164
74726164696e67</w>
6f706573</w>
70756e6b</w>
496e647573747279</w>
57616c6c616365</w>
576f6c66</w>
42617074697374</w>
63696e656d61</w>
636561736564</w>
416e676c6f</w>
7374616e</w>
626c6572</w>
69636f6e</w>
706574</w>
554e</w>
506174</w>
436f6d6d697373696f6e6572</w>
6e696e7468</w>
646f6f7273</w>
4d6f6e74676f6d
52656e61697373616e6365</w>
62656c6c696f6e</w>
4142
5079
6170706572</w>
66656c64</w>
4142</w>
506c617953746174696f6e</w>
4a7572
416d7068696269616e73</w>
65787465726e616c</w>
636f6c6f6e79</w>
72696b</w>
77616e7473</w>
636f6d6d656e74
726570726573656e746174696f6e</w>
757262
6f747970
70726f64756374696f6e73</w>
686f726e</w>
536c6176
686f6c646572</w>
61636f</w>
626f6d62</w>
546f676574686572</w>
416e74
737566666572696e67</w>
526f76657273</w>
536168
6769616e74</w>
657863657074696f6e</w>
48617a
417564
4361706974
69636869</w>
77696e646f7773</w>
73756273706563696573</w>
73686f77
7363686564756c65</w>
70696e</w>
46657272
696e64696361746573</w>
5265736572
4c656f</w>
77656464696e67</w>
616d6f6e677374</w>
65726563746564</w>
6f7065726174697665</w>
4f75747374616e64696e67</w>
546564</w>
67726579</w>
726174696f</w>
44726167
7468656d6573</w>
6f75746572</w>
757373</w>
6b6e6577</w>
636f6e6365727473</w>
656e6961</w>
696d6d656469617465</w>
636f6174</w>
737570706c696573</w>
656d6272
71756972
6f6e696373</w>
6b696e67646f6d</w>
73696d706c
696e73706972
42697264</w>
796d6e6173
617474726163746564</w>
44696d
747261696c</w>
696e737472756d656e74</w>
46696e616e63
4865696e
43726f77
776173
6d6f766573</w>
497361
487567686573</w>
736f6c65</w>
6d6f6d656e74</w>
7374726970</w>
416d6174
666f7265
5061726b73</w>
666978
7375697461626c65</w>
6d757365756d73</w>
72616e6b73</w>
47696f76
4772616365</w>
756c74696573</w>
4c6176
6b6972
656e6e69616c</w>
6472756773</w>
5368616b657370
686f6c64657273</w>
636f6e6e656374696e67</w>
6e65636b</w>
7468756d
50656e696e73756c61</w>
4950</w>
737562757262</w>
6a7573
6f756c646572</w>
656c6563746f72616c</w>
4765726d616e73</w>
636f72726573706f6e64
72657374726963746564</w>
4145
70616c616365</w>
796d65</w>
696e6165</w>
47726f7665</w>
69746f</w>
6775696465</w>
72656173
53746174697374696373</w>
4b4f</w>
7374616e636573</w>
6c696674</w>
466c79696e67</w>
4d656e64
50657465727362757267</w>
31383438</w>
7769636b
636f6d706574696e67</w>
6c6576617264</w>
6d656574696e6773</w>
766f6c</w>
627579</w>
696c6572</w>
7469736d</w>
76696f6c696e</w>
5368616b657370656172
5261796d6f6e64</w>
656e6c79</w>
706172746c79</w>
6e6f6d696e6174696f6e</w>
5361736b61746368
7472616e736d697373696f6e</w>
7369676e69666963616e6365</w>
616e7468726f70
64756f</w>
47726164
777269746573</w>
436f6e6665646572617465</w>
5361736b617463686577616e</w>
6f74746f6e</w>
73686564</w>
6978
7472616e736974696f6e</w>
7265736f6c7574696f6e</w>
7669727573</w>
6e756d6265726564</w>
73657373696f6e73</w>
4c656d
63726f7764</w>
72657461696c</w>
77696465737072656164</w>
43686170656c</w>
7363686f6f6c
706f727465646c79</w>
75616c697479</w>
74756e6e656c</w>
7261706964</w>
c3ab
626964</w>
697469</w>
696e646967656e6f7573</w>
636c6f73696e67</w>
726174
4d797374
7374697475746573</w>
7465616d6d
53686f72746c79</w>
616d616e</w>
756c75</w>
6173746564</w>
6d75726465726564</w>
726173</w>
726570726573656e74617469766573</w>
657665727468
56656e696365</w>
706c616e74
4b6f6d
657665727468656c657373</w>
726573746f726174696f6e</w>
417274697374</w>
6c696761</w>
61696e6572</w>
7573746564</w>
65737465727368697265</w>
74686f7573616e64</w>
64656369646573</w>
6f7267616e69736564</w>
54616d7061</w>
487562
6d61727279</w>
737461</w>
61667465727761726473</w>
e282
6c696272
434e
75726368
626f6e7573</w>
616767
756e6e
67726164756174696e67</w>
636f6e67726573
4265617273</w>
65726173</w>
427279
6e65746963</w>
6578706572696d656e74616c</w>
757272696e67</w>
4d7573696369616e73</w>
4e6f76656c73</w>
4368616d626572</w>
656e6f73</w>
6d616b657273</w>
526f62</w>
626567756e</w>
76656e</w>
747269626573</w>
4963656c
74726176656c6564</w>
6f6f6b696e67</w>
616d6572</w>
62656172</w>
4f626c617374</w>
4d63436172
657874656e74</w>
73796d626f6c</w>
4d6f726e696e67</w>
64657461696c6564</w>
4c61626f72
65766f6c7574696f6e</w>
72617069646c79</w>
706c617977
6772616475616c6c79</w>
707473</w>
4a756e6374696f6e</w>
417274696c6c657279</w>
466c6f72656e6365</w>
72756c696e67</w>
6c6f636f6d6f7469766573</w>
617369</w>
656e6461</w>
666574696d65</w>
77726573746c696e67</w>
54686169</w>
5068696c6c697073</w>
4161726f6e</w>
6e657068
466f726d756c
616464</w>
746572696f72</w>
65736e</w>
6162696c
626574</w>
4e61736876696c6c65</w>
5768657265</w>
6573736d656e74</w>
41756469
4166746572
6368616d626572</w>
686f757365686f6c64</w>
57696c68656c
6f6e6175
426f6c6976
42616e64
6d6572676572</w>
656e646f</w>
6f70657261746f72</w>
50616e616d61</w>
4d657373
6f70706f7274756e6974696573</w>
6c696e64</w>
68656172696e67</w>
4368616c
6963616c73</w>
6f6772617068</w>
5269646765</w>
48696d
636f6e76657273696f6e</w>
4265696a
5965
636f6e747269627574696f6e</w>
546162
59656c6c6f77</w>
42616c6c</w>
68756e6472656473</w>
526576</w>
46656c6c6f77</w>
5072696365</w>
7073657564
42617274
61636869</w>
6f6772
416761696e</w>
416c6c696564</w>
656e74616c6c79</w>
4368616e67
486172626f72</w>
6173686573</w>
6d61746573</w>
6f627461696e</w>
656d6572676564</w>
4174746f726e6579</w>
65646974696f6e73</w>
746f6d
62726f6f6b</w>
616d6f</w>
756e69746564</w>
c3b3</w>
4865727a
41646d6972616c</w>
6465736372696265</w>
42656174
566976
62756c</w>
696e6b73</w>
656e6b6f</w>
45786368616e6765</w>
536c6f76616b6961</w>
446576696c</w>
65766572796f6e65</w>
656e6a6f796564</w>
6561727468</w>
636f6d706f6e656e74</w>
66726f6e74
46696e616e6369616c</w>
737461747565</w>
72656c6576
61676f6e697374</w>
52656473</w>
756e74</w>
4f6666
706c616e6574</w>
576564
73656e74656e6365</w>
444f
576974
6173736973746564</w>
7265667567
6d696e6573</w>
72657665616c73</w>
6772617373</w>
6f6e6e6965</w>
43686f72
43617365</w>
73696768
4b656e7961</w>
636861
617474656e64696e67</w>
706967
52616368
57656c6c696e67746f6e</w>
6f66666565</w>
536f6d6572736574</w>
7061727469616c6c79</w>
6172636869746563747572616c</w>
486172766579</w>
6761
70726f70
e1b9
7461696c6564</w>
737570706f727473</w>
6675
c3b161</w>
646f776e73</w>
69746961</w>
63616e616c</w>
5472616e736c
526f6f6d</w>
657273697479</w>
416e6e75616c</w>
6574746572</w>
6162757365</w>
77696e67
4172636869766573</w>
696c6c6f</w>
697269</w>
70686f737068
706563
486176696e67</w>
73746f6e6573</w>
686f6c65</w>
4576657279</w>
736368</w>
5374616e666f7264</w>
73706f6b65</w>
63616e63656c6c6564</w>
496e646570656e64656e6365</w>
4d4f
747275737465
62616279</w>
617373756d
63617465676f72696573</w>
506974
666974746564</w>
756c6c79</w>
557275
6c6f7365</w>
706f7373657373696f6e</w>
7265636f7665726564</w>
6c616d
636f6e6365726e6564</w>
4c6967
46656d616c65</w>
6c6f6f6b6564</w>
68756e74696e67</w>
636f70616c</w>
4c756b65</w>
73657768657265</w>
73656e7369
70617373616765</w>
4d6963726f73
6d6f62
4169726c696e6573</w>
4162726168
736f756c</w>
4d6f62696c65</w>
636f6c6f7273</w>
697961</w>
506c616e</w>
536f6f6e</w>
41776179</w>
6573656c</w>
5567
44657574
4d6f746f72</w>
6573736f7273</w>
65656e7468</w>
61636365737369626c65</w>
6f626c6967
69636b79</w>
437a656368
66726f67</w>
657875616c</w>
536f6e</w>
6162726f6164</w>
7061726c69616d656e74</w>
417562
41707065
636976696c69616e</w>
617269616e73</w>
7269666963
63686f6f7365</w>
57616e67</w>
636f6d6d616e646564</w>
56696c6c61</w>
6d696c6c
6d696e73746572</w>
4a616371756573</w>
6578636176
6672657175656e74</w>
636f73
4368726f6e6963
477265676f7279</w>
676f6c66</w>
66617374
706172656e74</w>
6d656e74696f6e</w>
6f7574696e67</w>
627269636b</w>
7765696768
4e79
437562616e</w>
73756273696469617279</w>
4d6f7a
696172</w>
4468
47726f756e64</w>
657874696e6374</w>
66616c6c696e67</w>
637573746f6d657273</w>
636f6e647563746f72</w>
73616e67</w>
41726e6f6c64</w>
7061727469636970616e7473</w>
5368616e67
7477696e</w>
7269636b</w>
6472657373</w>
4265696a696e67</w>
7468726f77</w>
537069726974</w>
4d617a
6163726573</w>
656c7365</w>
6d6967726174696f6e</w>
737472756767
6775696c7479</w>
4b696d
6964656e74696679</w>
537574
646f75626c6573</w>
706c6564</w>
636173746572</w>
48617274</w>
696e737572616e6365</w>
636f72706f72617465</w>
69616e6365</w>
7469636f</w>
6861707079</w>
72616e67696e67</w>
70726f6475636573</w>
73686f7070696e67</w>
686174</w>
686f6e6f72617279</w>
616e6963</w>
4d6963726f736f6674</w>
6170617274</w>
7374756479696e67</w>
6f696e67</w>
726573756d6564</w>
5072657374
476174
72656163686573</w>
636861726163746572697a6564</w>
736369656e74697374</w>
41706f6c6c
506561726c</w>
566f696365</w>
4e616e6379</w>
7365656b</w>
4c7578656d62
4a6f7365</w>
7365656b696e67</w>
4163746f72</w>
82</w>
726567696d65</w>
7574696c697a
4445</w>
506570
7370656e64696e67</w>
626163746572
6b727570
62616e6e6564</w>
536f6369616c697374</w>
7765616b
6761756765</w>
636f6e63656e74726174696f6e</w>
626c61636b
756e74
4c656f6e617264</w>
6275736573</w>
73747564696f73</w>
4d6f6e74676f6d657279</w>
7265706f72746572</w>
616c7468
67726170686963</w>
6c696d697473</w>
31383538</w>
4d61727175
70726f686962
416c676572
4d61686172
7269657273</w>
696e636964656e7473</w>
64657369676e6174696f6e</w>
6d616c6c</w>
6167656d656e74</w>
416e676c6963616e</w>
776561706f6e</w>
737572766976
69746572</w>
756c6e657261626c65</w>
61746973746963616c</w>
636f6e74696e756f7573</w>
70657266656374</w>
6c696572</w>
72756e6e657273</w>
4f70</w>
506f6c6974696369616e73</w>
57696b
73756273746974757465</w>
546f6464</w>
4e657874</w>
5975676f736c61766961</w>
6469736372696d696e
666162
7769746e
6d616e75666163747572657273</w>
737769636b</w>
62656c6f6e67696e67</w>
65726963</w>
74656e64</w>
616c6c656e</w>
737061636573</w>
4d61736f6e</w>
67656e657261746564</w>
436f6d65</w>
68697073</w>
7376696c6c65</w>
7472757374</w>
61696d6564</w>
6f7267616e69736174696f6e73</w>
77616974</w>
636f6e76656e74696f6e</w>
5349</w>
6b67</w>
466f726d756c61</w>
61726573</w>
6261636b6564</w>
6f717565</w>
4d5456</w>
6d617373
5269766572
656e636f757261676564</w>
546174
6f6e6579</w>
6e75636c65
43616c67617279</w>
4178
70687973696373</w>
6570686f6e65</w>
7374726f6b65</w>
42656e67616c</w>
65787472656d65</w>
62616c616e6365</w>
756f7573</w>
47757374
6f6b73</w>
526567756c6172</w>
c3b66e
766964656e6365</w>
6469616d65746572</w>
7e</w>
7969</w>
524e41</w>
4d616e75656c</w>
636f6e666967
8d</w>
646976657273697479</w>
31383534</w>
6f70706f6e656e7473</w>
506f73
737570706f7274657273</w>
617373657473</w>
52616e6765</w>
7468616d</w>
61726973</w>
61736861</w>
62617474616c696f6e</w>
5354</w>
6465706f73
74696d</w>
4c6163
45646d6f6e746f6e</w>
696e74656c6c656374
70726f78696d
746865726d6f7265</w>
756d6e</w>
737472656e67
61676172</w>
696d6d696772616e7473</w>
4d617263</w>
54756265</w>
456e6379636c6f7065646961</w>
53686570
31383535</w>
7375627374616e7469616c</w>
6d656d6f7269616c</w>
6d6f727068
6576696c</w>
4b6162
636f6e737469747574696f6e616c</w>
666673</w>
43697263756974</w>
62656c696566</w>
6d616e756661637475726572</w>
6d617474657273</w>
50726f74657374616e74</w>
72616e64
4d756368</w>
636c6f7468696e67</w>
67616c6c657279</w>
6b696c6f6d
656c656374726963697479</w>
6d617468656d6174696373</w>
696e76656e74
62656e6566697473</w>
77696c64
717561727465726261636b</w>
696e756d</w>
4d616368696e65</w>
4d6f6e74616e61</w>
5365726765
4d61676e
626964
6a65
73796d7074
5069616e6f</w>
4e616b
636164
73657269616c</w>
73756e</w>
73696c656e74</w>
6d65726368616e74</w>
6f7370656c</w>
6368726f6e
66617363
546972
736176
636172676f</w>
746f78
646f65736e</w>
6f6d6f6e</w>
6269</w>
426f756c6576617264</w>
73656d69
466c656d
6661766f7572
636f6e76656e74696f6e616c</w>
6c6f7264</w>
747261646974696f6e73</w>
5365616e</w>
6f63636f</w>
76696f6c656e74</w>
686961</w>
676f6c64656e</w>
4943
616e6361</w>
686f74
6d616e756661637475726564</w>
766f74696e67</w>
e286
6e656974686572</w>
6e6f76656c69737473</w>
4174686c65746573</w>
656564</w>
616e6e6573</w>
6b69646e
41706f7374
52656c6967696f7573</w>
616363657074
4147
42797a616e74696e65</w>
6174686f6e</w>
416368696576
6f63636173696f6e</w>
4e6567
6f72697468
68656d
616e796f6e65</w>
6475616c</w>
4d616e61676572</w>
6365727461696e
65737370656f706c65</w>
53686168</w>
636f6163686564</w>
49736c65</w>
646f7562
52656c6967696f6e</w>
4365727469
676f7665726e6d656e7473</w>
6661</w>
6c616e
466f73746572</w>
416262
4c4f
62656174696e67</w>
696461746564</w>
74617065</w>
53756c74616e</w>
6c696e656172</w>
7574696e67</w>
696e676f</w>
6962696c697479</w>
6d6f6465726e
696e6175677572616c</w>
616c746974756465</w>
616e6765726564</w>
61626f
5368697073</w>
50756e6a
455350
706573</w>
537570706f7274</w>
7265706f727465646c79</w>
65737461626c697368696e67</w>
5472656174696573</w>
31383430</w>
47617a
74616c656e74</w>
5061726164
6d696e6f72697479</w>
746f7572696e67</w>
5265796e
6c656e</w>
5261626269</w>
61736961</w>
70616e656c</w>
31383536</w>
6f6c656e</w>
6963697374</w>
6f75747374616e64696e67</w>
76617269616e74</w>
7061726c69616d656e74617279</w>
4e6f72746877657374</w>
6661637473</w>
626568616c66</w>
657068616c
756e6465727374616e64</w>
457363
657870656e73697665</w>
5065727468</w>
5468726f7567686f7574</w>
53746566
76617279</w>
726964696e67</w>
4c61757261</w>
73616d706c65</w>
486164
43656c746963</w>
77726563
6f7074696d
4c69676874
496e697469616c6c79</w>
436c61726b65</w>
656c656374726963616c</w>
4573736578</w>
656c696769626c65</w>
6d6f6e756d656e74</w>
4d6574686f64697374</w>
57656c6c73</w>
436972636c65</w>
4e6f7474
6b61
6a6f75726e616c73</w>
74656272
7468616c</w>
44796e616d
77656172696e67</w>
70726f6a
6f736c6f76
75736566756c</w>
496e74656c6c6967656e6365</w>
616c7465726e617465</w>
6c696e6572</w>
6174686c6574696373</w>
416d65726963
57726974696e67</w>
66616c7365</w>
666c6f776572</w>
6578706f736564</w>
70687973696369616e</w>
43616d706169676e</w>
576174736f6e</w>
313130</w>
446f6467657273</w>
636c6f736572</w>
3235
746174696f6e73</w>
6c6f</w>
646572696e67</w>
53746572
57696e6e6572</w>
7265766572
5254
5374756479</w>
7374727567676c65</w>
436f6e676f</w>
65726174696f6e</w>
53747261746567
5368616b65737065617265</w>
6578636c75736976656c79</w>
7365766572
6563746f7273</w>
656666696369656e74</w>
c3a6
726174</w>
6b656e
486967686572</w>
6e6f6d696e6174696f6e73</w>
4d617572696365</w>
6c656e67
696d6972</w>
4561676c65</w>
65706c6179</w>
6f6d6f</w>
6c6567656e64</w>
7265736561726368657273</w>
636f6e6e656374696f6e73</w>
4c617a
64697665727365</w>
6f6761</w>
7061747465726e73</w>
70726f7465696e73</w>
547563
53746f72696573</w>
616269</w>
4d696c6c</w>
666163696c6974
536369656e7469666963</w>
44657374
706f73736962696c697479</w>
47726579</w>
73697374657273</w>
6272616e646564</w>
496e74726f
4a6f616e</w>
70686f746f677261706873</w>
506970
73656375726564</w>
526f6d616e
696f73</w>
6578636570
73746174696f6e
4c7578656d626f7572
53757a
6e696b</w>
537465656c</w>
54726565</w>
6f726967696e73</w>
4d6f6e646179</w>
6163686d656e74</w>
4b6173
7265706561746564</w>
5572756775
4555</w>
796c6c
506f64
6561726e</w>
657373656e7469616c</w>
6d656368616e6963616c</w>
746f6e65</w>
7468726f6e65</w>
686f73
636872
313035</w>
70726f76696e636573</w>
6e656f</w>
4167726963756c74757265</w>
617272616e67656d656e7473</w>
4272756e737769636b</w>
46696e616c73</w>
4c6f6e
726f67
4170706c65</w>
656c64657374</w>
4a6f696e74</w>
43726973
73706163
696e766f6c766573</w>
65786365
564944</w>
6167657273</w>
6b69636b</w>
70656f706c6573</w>
6174686c65746963</w>
4163746976
676f64
64726f6d65</w>
6265726c616e64</w>
4e43</w>
7061727469616c</w>
616476656e74757265</w>
616d65776f726b</w>
63656d6574657279</w>
616c6c696573</w>
61747461</w>
6372656174697665</w>
616476696365</w>
6d7573</w>
7374696d
627269676874</w>
746869636b</w>
72756d
7075626c69636c79</w>
4d616e67
4e65766572</w>
72656d6f7665</w>
44696374696f6e617279</w>
4164766973
5045
636f6d6d656e636564</w>
46756c6c</w>
636f6d6d756e69636174696f6e73</w>
53636f746961</w>
5468657265
626f78696e67</w>
626f756e646172696573</w>
4c7574686572
52656164696e67</w>
506c6179696e67</w>
656e74697479</w>
4d756c7469
50726f74656374696f6e</w>
5641</w>
74686572617079</w>
53756368</w>
6e69636b6e616d65</w>
46696e616e6365</w>
4d656368616e
6578636c7564
496e646976696475616c</w>
6c616b6573</w>
726567756c6174696f6e73</w>
61726d61</w>
73757276697665</w>
706c6163656d656e74</w>
756e6461</w>
747269616c73</w>
4365
6472756d</w>
4e52
657368697265</w>
616666696c69617465</w>
7765656b656e64</w>
4b617465</w>
73686f6f74</w>
4261736564</w>
7175616e7469
52656564</w>
636573746572</w>
6e7574</w>
4d696c6c73</w>
6a6f79</w>
5265666572
6772616e64736f6e</w>
6f6e6f6d6f7573</w>
6c61796572</w>
666c696573</w>
656572</w>
616e67756c6172</w>
76696f7573</w>
696c6c7573747261746564</w>
43616d707573</w>
5370656e636572</w>
52657475726e</w>
414643</w>
56657273696f6e</w>
e1ba
7072696e6369706c6573</w>
4372757a</w>
6f7879
69746f72
70686f746f</w>
6f67616e</w>
464b</w>
4c616b6573</w>
7175616c696679</w>
686f75736564</w>
73756d6d617279</w>
69636974</w>
5461736d616e
756d69</w>
726f777370616e</w>
696d706c656d656e746564</w>
31383532</w>
63617473</w>
697374616e69</w>
756e69666f726d</w>
6170706c79</w>
69676e6564</w>
49736162
54616c6573</w>
436563
73696d756c74616e
63686172697479</w>
6f70736973</w>
48696e6469</w>
616c64
4a656e
6569726f</w>
437a6563686f736c6f76
636c65616e
446f67</w>
746963756c
6f63</w>
636f6f6c
42656e6e657474</w>
73657175656c</w>
70616e64
626564
4c696265727479</w>
656d7065726f72</w>
7472757468</w>
65726965</w>
436f68
64697374696e6775
50726f76696e6369616c</w>
74726962757465</w>
54686f7365</w>
726172656c79</w>
4a61
7472656173
4954
536f6e79</w>
65766163
426f736e6961</w>
636f6e73697374656e74</w>
617578</w>
74616e6b73</w>
4c697374
466973686572</w>
7265636f676e69736564</w>
7377697463686564</w>
61686f</w>
4c6f77</w>
67616e</w>
6f726e</w>
66756e64616d
31383533</w>
52686f6465</w>
517565656e73</w>
436f726e77616c6c</w>
536570
4f6666</w>
646573697265</w>
547261
4d6347
436f6d7065746974696f6e</w>
4d61</w>
6661726d657273</w>
77616c6b696e67</w>
67617264656e73</w>
7275</w>
6661756e61</w>
4e696e
657374696f6e</w>
636f6e67726567
6465636973696f6e73</w>
5072696e6365746f6e</w>
477569746172</w>
74617267
656c6572</w>
63726f73736564</w>
726563697069656e74</w>
6d6f6e73</w>
756c7573</w>
6465636f6d
4976616e</w>
636c6561726c79</w>
66666262</w>
616e63656c6c6f72</w>
4169726573</w>
72696365</w>
7368656c6c</w>
636f6d6d756e697374</w>
616374697669737473</w>
6875</w>
726f636b73</w>
636f6d70656e73
666c69
6d617274</w>
31383531</w>
636f6e736572766174697665</w>
6174686c657465</w>
4972617169</w>
626f726f</w>
313330</w>
466f75727468</w>
434f564944</w>
73656172
46696c6970696e6f</w>
446f75626c65</w>
cebf
6a6572
6e6f76656c697374</w>
656c6961</w>
686f7065</w>
4e6577746f6e</w>
6163717569736974696f6e</w>
616474</w>
53686177</w>
69637573</w>
69636b6564</w>
5377656574</w>
64697370757465</w>
546f79
766f63616c697374</w>
31383439</w>
53637269
6f7264</w>
417070
4941</w>
7370656369616c
6176696174696f6e</w>
4d6172696f</w>
72616e676573</w>
6465616e</w>
70726f74657374</w>
536f75746865617374</w>
44656570</w>
766572746963616c</w>
4954</w>
616361</w>
44616e69
6578636c7573697665</w>
446176696573</w>
6f6e676f696e67</w>
6f7468</w>
4d61726974696d65</w>
416c74
4275656e6f73</w>
706c65
726564756374696f6e</w>
5346</w>
656c6c657273</w>
4d4c42</w>
736574746c657273</w>
72657669736564</w>
6b75</w>
56696577</w>
706974</w>
6c6f77657374</w>
31383437</w>
4761627269656c</w>
73746f7279
e282ac</w>
47696f76616e6e69</w>
504f
564949</w>
42656c6172
6465706172746564</w>
496e7465727374617465</w>
656c646572</w>
5472696e
736f6170</w>
6d656368616e69736d</w>
636f64
636f6e737469747574696f6e</w>
4f73636172</w>
6c6f6f6b73</w>
48656176
4c656963
c49f
61626f617264</w>
446573657274</w>
6f6368</w>
726973696e67</w>
626266666262</w>
62616e6b727570
416c6c616e</w>
53636877
536f75726365</w>
746f75726e616d656e7473</w>
68656c7073</w>
4d616e6974
6b6172</w>
6f7267616e6963</w>
74616c65</w>
736b69
74756e65</w>
42756e646573
4576616e67656c
43726177
43617265</w>
313032</w>
6170706172656e74</w>
62696f6c6f676963616c</w>
4576656e74
656e69</w>
6f70706f6e656e74</w>
57696c646c696665</w>
696c6c6e657373</w>
636162696e6574</w>
43617264696e616c</w>
796c6572</w>
4162726168616d</w>
6574746573</w>
696e73697374
5265636f7264696e67</w>
726964657273</w>
416a
576f6c66
547970
44656c7461</w>
41726d656e6961</w>
63617368</w>
50656e6e</w>
6d6574726f706f6c6974616e</w>
66757274</w>
646570656e64656e74</w>
6f72636865737472
6361706974
436f6e67726573
666978</w>
636174746c65</w>
6963756c756d</w>
666c6f6f
3233
6e69676874
636f6e6365726e696e67</w>
6d6f697374</w>
5379726961</w>
52757468</w>
626f6f
7065727375
6f76656e</w>
446f6e6e
555353</w>
576f726b
656174</w>
73616e64</w>
42757267
436f6c65</w>
6c616e646564</w>
62656c6965766573</w>
7065726d697373696f6e</w>
426f6f
436f6c696e</w>
7a69
537572766579</w>
61756768746572</w>
45636f6e6f6d696373</w>
616e69736d</w>
d0b0</w>
7061696e</w>
617373656d626c
6d616e616765</w>
6ec3a965</w>
6b6f76</w>
5468657265666f7265</w>
636f7272656374</w>
63617272696573</w>
63726f7073</w>
41626f72
6f726967696e61746564</w>
50726163
68696d61</w>
7265616473</w>
747261697473</w>
7761737465</w>
72616e6f</w>
46696e616c6c79</w>
66656172</w>
6974617269616e</w>
72656c656761746564</w>
4c6f636b
6f6b75</w>
486f74
c5ab</w>
6465636b</w>
70727573</w>
6964656e746963616c</w>
617369616e</w>
72657370656374697665</w>
536b79
706172746e657273</w>
79636c65</w>
73756767657374</w>
706174726f6c</w>
467572746865726d6f7265</w>
796d6f757468</w>
636572746966696564</w>
4f77656e</w>
4e696e65</w>
43686573746572</w>
6d6174757265</w>
537972
496e63
50616c6174
467574
636572656d6f6e
646973706c61796564</w>
62726f61646361737473</w>
42726164666f7264</w>
61646d696e
73706f7473</w>
4c6561
7361696c6564</w>
6e657374</w>
6564776179</w>
436174</w>
63697263756d7374616e636573</w>
7370656c6c</w>
5374727563
657073</w>
636f6d706c6574696e67</w>
696e68616269746564</w>
62656174656e</w>
474d</w>
48756e74</w>
756e6c696b65</w>
6c6162656c73</w>
42757269616c73</w>
61726469
52656d6978</w>
65736368
626c756573</w>
6b696c6c73</w>
73796e74686573
456c656374696f6e</w>
65787072657373</w>
536972
616768</w>
4361726e
657870657274</w>
7468696e</w>
4a757374696e</w>
726974</w>
477561726469616e</w>
6f72616e6765</w>
437970727573</w>
73656173
61636874</w>
6f7665727479</w>
72616973696e67</w>
746f72706564
44656d6f63726174</w>
61776172
486967
67656d
65746963616c</w>
616e73776572</w>
43617373
636c696e6963616c</w>
6c6174657374</w>
70656e</w>
656465</w>
706f7274696f6e73</w>
437972
6669667465656e</w>
7365656d</w>
696369
4576656e7475616c6c79</w>
6f726e
707265646f6d696e
6879627269
757265
4d657468
696e69746961746564</w>
67656e65746963</w>
47617264656e73</w>
4a616d61696361</w>
74686572656166746572</w>
5374696c6c</w>
61636b6e6f776c65
596f7554756265</w>
65636f6e6f6d696373</w>
7368696674</w>
43616c6c</w>
e28692</w>
736c61766573</w>
6d616e6966
496e74657276696577</w>
657269616c</w>
44757268616d</w>
466172</w>
4b72697368
6a757279</w>
4d6163</w>
427261766573</w>
436f63
616c676f72697468
6f76657273656173</w>
64657374726f79</w>
416d6174657572</w>
626179</w>
6166666f7264</w>
57696e64</w>
56696e
656d696573</w>
65626f6f6b</w>
70726163746963616c</w>
6c656769
617572</w>
636f6e746573746564</w>
4e6173
70726f706167
656e666f7263656d656e74</w>
64697363757373696f6e</w>
4973616163</w>
636f6d6d656e746564</w>
7361696c
436f6d6d657263
76657274656272
506c616e74</w>
61626f6c6973686564</w>
746f757273</w>
65736d616e</w>
78696c69
57616b
436c61
6779</w>
696e7365637473</w>
7363686f6c617273686970</w>
536561
4275726e
7361766564</w>
656c656d656e74617279</w>
666c6967687473</w>
636f6d70696c6564</w>
636c6966
64616e6765726f7573</w>
737570706f736564</w>
69746f7269616c</w>
74696369736d</w>
7061747269
616c746172</w>
6561726564</w>
494d
6469736d6973736564</w>
73746f7073</w>
74736f6e</w>
476f74686963</w>
31383436</w>
616c6c6f63
677565737473</w>
6f76696e61</w>
64657a</w>
4d696775656c</w>
69646174696f6e</w>
7472756d70
66696e697465</w>
6465706172746d656e7473</w>
696e63726561736573</w>
7265746972696e67</w>
736c617665</w>
6172697573</w>
576f726b657273</w>
7061726b696e67</w>
77616e
48697473</w>
616c697665</w>
7769746864726577</w>
7361637269666963
747265617479</w>
476c656e</w>
6775657a</w>
64697362616e646564</w>
537069646572</w>
696f7273</w>
726576656e7565</w>
766f79</w>
48697370616e
646973637573736564</w>
446972
72696e67746f6e</w>
61757479</w>
6b657473</w>
47616e
5265766f6c7574696f6e617279</w>
6e6570686577</w>
313235</w>
70656469
41676573</w>
426967
627265616b73</w>
6f7368</w>
6f6e6d656e74</w>
6963617465</w>
4a6f68616e6e</w>
42617373</w>
736c6f77
747261646974696f6e616c6c79</w>
70726965737473</w>
4c697361</w>
4578706572
666f727468</w>
313830</w>
50616c6d6572</w>
61646f7773</w>
47617465</w>
656c73657768657265</w>
417261626961</w>
676c696e67</w>
7375626d6974746564</w>
7765616c746879</w>
6d616e6167696e67</w>
5469676572</w>
707265666572726564</w>
6461746162617365</w>
6f7773686970</w>
726571756573746564</w>
4b6572616c61</w>
6f70746572
52696365</w>
6f6f6e73</w>
57696c6c69616d
626f6f6b
6879706572
5849</w>
72657374617572616e7473</w>
616e696d6174696f6e</w>
636f6e76657273
72656c6576616e74</w>
65786974</w>
636f6e6e65637473</w>
43756273</w>
41637472657373</w>
4f74746f</w>
696d706c656d656e746174696f6e</w>
796c6f6e</w>
446f62
53616e7469
8f</w>
68696464656e</w>
53616c74</w>
4b656e6e657468</w>
65766f</w>
7573616765</w>
4576656e7473</w>
766973697473</w>
6c6f6f70</w>
66666572</w>
6d6f746976
6d617073</w>
737472617465676963</w>
47686f7374</w>
636f6e636c7573696f6e</w>
62726967616465</w>
6574746f</w>
757361</w>
64696666</w>
646f63756d656e746564</w>
656e67696e65657273</w>
6163636f</w>
696e746572707265746174696f6e</w>
72687974686d</w>
456c656374696f6e73</w>
68696c6c73</w>
686f72697a
7472756d</w>
756765</w>
70726f6d697365</w>
467269656472696368</w>
416275</w>
526168
696e7465727669657773</w>
6e7574
69736f6c61746564</w>
666f7263696e67</w>
4e6f6e
656e6f</w>
617474656d7074696e67</w>
72616369616c</w>
31383337</w>
72616674</w>
4c6561646572</w>
70726579</w>
4779
707572737565</w>
4f616b</w>
63616d7073</w>
636c65616e</w>
657863656c6c656e74</w>
4c69746875616e69616e</w>
73636f726573</w>
48616c69
4b7265
6f6c6c79</w>
496e766573746967
4261746d616e</w>
62656c6f6e6773</w>
6d6f72616c</w>
5374617274696e67</w>
61726564</w>
6f7369
646566656e64657273</w>
416e6472657773</w>
7072656d69657265</w>
636f6e6e656374</w>
76656e74757265</w>
4843</w>
736f756e6473</w>
746f70696373</w>
5374616c
54616b65</w>
616666616972</w>
666c6176
6272616e6473</w>
726573706f6e646564</w>
76617374</w>
7468757369
7265706f7274696e67</w>
6176657279</w>
426567696e6e696e67</w>
4761656c6963</w>
6d616368696e6573</w>
706872617365</w>
436f6d656479</w>
63686172746572</w>
6164696572</w>
44756d
65637469766573</w>
c396
626965</w>
4d61727368
73756d6d6974</w>
6f6f6c</w>
706c656173
436c6173736963616c</w>
5052</w>
50616b697374616e69</w>
6d61696c</w>
696e636172
7072696e6365</w>
737065616b6572</w>
456e7669726f6e6d656e74</w>
53746576656e73</w>
62656c74</w>
e280a6</w>
4c6567616c</w>
656c657273</w>
636f6c6c656374697665</w>
747269627574
5472616e736974</w>
736f6c6172</w>
74756d
417572
57696e6773</w>
666f6e
42656c66617374</w>
657269616e</w>
61746861</w>
75746f72</w>
63656e74726573</w>
66696e6564</w>
65646573</w>
736b6574
566f6c756e7465
643664
366436</w>
706972
643664366436</w>
6865726f
70656163
65697261</w>
3344</w>
4e6577706f7274</w>
64656c6976657279</w>
666669
4c69746572617279</w>
736172</w>
53686572696666</w>
726f65</w>
6c69676874696e67</w>
65646572</w>
4c756e
6661726d696e67</w>
747275636b</w>
62656e</w>
63727563
44697374696e67756973686564</w>
72657473</w>
69737361</w>
626561757479</w>
417a65726261696a616e</w>
486174
7a65726f</w>
64697374696e6374697665</w>
6b69
7072657061726174696f6e</w>
62617273</w>
6368726f6d
737564
576172736177</w>
62696c6c73</w>
456e64
766973696f6e616c</w>
5377696d
73687574</w>
48656967687473</w>
6465656d6564</w>
617269756d</w>
7370656e64</w>
42726f776e73</w>
636f6d70726568656e73697665</w>
53746f636b686f6c6d</w>
657472
7465726e6f6f6e</w>
737065616b657273</w>
50617374</w>
5369676e
53697374657273</w>
656e646172</w>
d8a7
42726f6f6b73</w>
6d61676963</w>
656e636961</w>
73687574
416476616e636564</w>
737572</w>
616b65
5265736f7572636573</w>
737769
576974686f7574</w>
696e68657269746564</w>
62696e64696e67</w>
7072696e6369706c65</w>
706f</w>
4967
5368616e67686169</w>
656c696e6773</w>
696b6f</w>
73796d70746f6d73</w>
6b616e</w>
4c6f6d62
696c69</w>
636170</w>
536166657479</w>
636c657369
6d6f6e74
726f6f74</w>
7370696e</w>
69736861</w>
53706172
6669676874657273</w>
45726e657374</w>
636f72726573706f6e64696e67</w>
41726d6564</w>
6164657175
6275726e6564</w>
616972696e67</w>
3234
7468696e6b696e67</w>
6f736869</w>
657874656e736976656c79</w>
504d</w>
616d6269
5365626173
416265726465
48616e</w>
616d706c
504741</w>
5268696e
44756e63616e</w>
63686c6f72
526f63686573746572</w>
456c6c6973</w>
be</w>
6f756c646e</w>
5573</w>
76696374696d</w>
6175746f6d61746963</w>
6f636b6574</w>
4c6f74
4b69726b
4469616d6f6e64</w>
6172726976696e67</w>
4479
63756c6172</w>
6c6f676f</w>
416476656e7475726573</w>
616d62617373
486f64
6f7269656e746564</w>
61737369676e
696e74656e74696f6e</w>
62726f77
63617375
6669</w>
6f6e697374</w>
63686f6972</w>
6f75736e657373</w>
697a6572</w>
44656d6f6372617473</w>
46656c6c6f7773</w>
506f6c6c
42726f74686572</w>
7363756c7074757265</w>
766963746f72696573</w>
4943</w>
4d6172637573</w>
73796e6f6e796d</w>
74726176656c6c6564</w>
696e7465726e6174696f6e616c6c79</w>
6a6172
6669656c64657273</w>
7370656369616c697a6564</w>
636972636c65</w>
756e6c657373</w>
666c6577</w>
b7</w>
61727269766573</w>
6d65617375
626f617264696e67</w>
566965746e616d
7072657373696f6e</w>
546f74616c</w>
4c6f73
d0b2
626174746c6573</w>
6465766f746564</w>
5068696c6f736f706879</w>
4465766f6e</w>
706572696f64
70726f6d6f74696e67</w>
417273656e
4261696c6579</w>
7964
4e7563
667572</w>
496e73706563
6c6f6e</w>
70726f7665</w>
676f64</w>
5061726c69616d656e74617279</w>
6578657263697365</w>
756b61</w>
31383435</w>
42656c6772616465</w>
6f76696368</w>
72656d6f7465</w>
616c636f686f6c</w>
696e746572727570
446f6d696e6963616e</w>
31383332</w>
726f737365</w>
70726573736564</w>
656e736f6e</w>
74656d706f726172696c79</w>
73616e
7265636f76657279</w>
77616974696e67</w>
6573636f</w>
6578706f73757265</w>
6365707473</w>
646973636f6e74696e756564</w>
65627261</w>
707570696c73</w>
657870616e64</w>
65617274687175
4e6163
7368656574</w>
70696c6c
706c616e6573</w>
69646164</w>
53616e67
72657369676e
c3b66c
74656e64
656e64616e6765726564</w>
5372</w>
4672616ec3a76f6973</w>
4c6f75697365</w>
656e64617279</w>
68796472
4c7578656d626f757267</w>
6673</w>
417374
746162
746f6f6c</w>
70726f64756374697665</w>
746561</w>
64656274</w>
757a
69626572
43616e746572
63617272696572</w>
7468726577</w>
68756d616e
5061756c6f</w>
436c696d617465</w>
48656176656e</w>
687561</w>
48656e646572736f6e</w>
66696e616e6365</w>
7375706572696f72</w>
526174
656c657661746564</w>
74726176656c73</w>
526f616473</w>
7769646572</w>
746865617472
46616374
50726f6d
393030</w>
617474656e64616e6365</w>
7365656473</w>
4177
526162
546f7572697374</w>
6d697473</w>
434d
696e646578</w>
42656e65646963
4a617661</w>
43757272656e746c79</w>
456973
50726f6475636572</w>
6f76736b79</w>
757363
77726974696e6773</w>
4147</w>
4f67
7175657374</w>
62757368</w>
63616d706169676e73</w>
61776e</w>
72656d696e
7265636569766573</w>
576f6f6473</w>
6f6c7068</w>
7069637475726573</w>
536170
313034</w>
66616374696f6e</w>
436176616c7279</w>
6d6164</w>
566965746e616d657365</w>
496e646f6e657369616e</w>
70696f6e656572</w>
657874656e64</w>
77657374
436974697a
776f727374</w>
726567617264</w>
6f6d626572</w>
61656c</w>
646973736f6c766564</w>
6162736f6c
6b696c6f6d6574657273</w>
4772616d6d79</w>
61676173
4c656f6e</w>
696e6974696174697665</w>
61646d6972
4c6567696f6e</w>
4a6167
556d
63617463686572</w>
72656d6978</w>
43617563
4c6963
6872</w>
70726564
547261696e</w>
64c3a9
69736869</w>
6d696c6c69
666f6375736573</w>
6f78696465</w>
6861776b73</w>
526f6e616c64</w>
446f7567</w>
746f7572697374</w>
7374616e64696e6773</w>
5448
6e696e6574
656d6573</w>
70696c6f7473</w>
6c79
4861707079</w>
6f726572</w>
4a6176
31383431</w>
6f6f6479</w>
7068696c6f73
64616c
47656e65</w>
6465706963746564</w>
73686172696e67</w>
64657363726962696e67</w>
65736361706564</w>
6e657973</w>
636f6e6772657373696f6e616c</w>
616c6c69616e6365</w>
776f726b6572</w>
61737369737473</w>
636f6d706c6578
576869
507265</w>
6f63656e65</w>
6269727468646179</w>
65737479</w>
636f7065</w>
70697374
6672657368</w>
6964616e6365</w>
6572726f72</w>
54656e6e6973</w>
68656e6365</w>
6179746f6e</w>
766172</w>
4b6964
31383434</w>
6f6f73</w>
656d6961</w>
737472657373</w>
73756d65</w>
66756e6572616c</w>
756e696f6e73</w>
7061697273</w>
4c6f75697376696c6c65</w>
333630</w>
6d697373
6f7074696f6e73</w>
656d6572
506f77656c6c</w>
6661766f7572</w>
736f7068
313036</w>
b3</w>
50726573746f6e</w>
57696c68656c6d</w>
313033</w>
47726176
707573</w>
666f727761726473</w>
66697368
657374616e7473</w>
74656e73696f6e</w>
706c6163696e67</w>
506f70756c6172</w>
48656c6c</w>
4e6f747265</w>
66696e</w>
494f
4665646572
4156
436f6d6d65726365</w>
4d616e69746f6261</w>
73616d706c6573</w>
496461686f</w>
617574686f726564</w>
42656172</w>
616d7068
706f727472616974</w>
70686f746f67726170686572</w>
7765616b</w>
74656c6c696e67</w>
61657573</w>
6469766572
63757474696e67</w>
66696572</w>
54726164697469
63617468656472616c</w>
6c696e696e67</w>
7072656465636573736f72</w>
46464646
476c6f75
626f7373</w>
65696e
42726173
636f6e74696e656e74616c</w>
4962
536f667477617265</w>
436174686f6c696373</w>
6666696e</w>
6e65676f74696174696f6e73</w>
746f756368646f776e73</w>
617a65</w>
7061
59616e67</w>
446f77
6f72756d</w>
4c74</w>
62617474657279</w>
646562757473</w>
526f6f73
4354</w>
4c6975</w>
6f6e616c73</w>
536e6f77</w>
5069636b
617368696e67</w>
4f696c</w>
617368697265</w>
666c6167
5350</w>
74656d706572617475726573</w>
656c616e</w>
43616d65726f6e</w>
53706163
53746f636b</w>
4c69746875616e6961</w>
6c6976
696e686962
616767726567617465</w>
48756c6c</w>
636c6f636b</w>
42726168
6761696e696e67</w>
4265796f6e64</w>
61696d73</w>
42616e6b73</w>
4c616e63617368697265</w>
657865637574696f6e</w>
56494949</w>
696e7465726e6574</w>
686174
6669726573</w>
696e666c75656e636573</w>
617070726f6163686564</w>
64616c</w>
756174696f6e73</w>
43616e74657262757279</w>
63617665</w>
696e6475737472696573</w>
67726f7773</w>
527574
78696c69617279</w>
4e6570616c</w>
446f63756d
4669676874696e67</w>
43617264696666</w>
486f75736573</w>
77696e6473</w>
6d756e
596f756e
41726d7374726f6e67</w>
41626f726967
436f6d706c657465</w>
c2bd</w>
7362757279</w>
486176656e</w>
65766f6c766564</w>
456e67696e656572</w>
617267756d656e74</w>
6368617261637465726973746963</w>
766965776572</w>
426c616b65</w>
696d70657269616c</w>
61766961</w>
7269737473</w>
43616972
73636f726572</w>
65657273</w>
507265736279
4c656e6e
7465657468</w>
4d617273</w>
616e63657374
6562</w>
436869656673</w>
696c6c6f6e</w>
72616d</w>
52696e67</w>
6f7574627265616b</w>
436f6e6e6f72</w>
546970
6f7574646f6f72</w>
4350</w>
6564676573</w>
496e7465726e
436f6d626174</w>
6465636f7261746564</w>
496e737472756d
72756c6572</w>
70616e64656d6963</w>
656e73686970</w>
67756172616e
63757272656e6379</w>
677279</w>
7065726d6974746564</w>
4f6d616861</w>
6368656d6973747279</w>
646566656e64</w>
6163636964
64657363656e64616e7473</w>
466973
4c75636173</w>
6578706c61696e73</w>
3335
4a616b
52696368</w>
4a6f7368</w>
657373656e7469616c6c79</w>
6d6f757365</w>
636f6e64656d
6e657474</w>
56656e74
437572746973</w>
6d656174</w>
536f6c6f6d6f6e</w>
52696368617264
707269636573</w>
4d6f6e6579</w>
50656e74
507261677565</w>
6d6c</w>
666963617465</w>
6a756d70</w>
4672616e7a</w>
656167
4b7261
676f766572
576573746d696e73746572</w>
696e666f726d6564</w>
626f64
4e656172</w>
74656d706c6573</w>
64656d6f6e73747261746564</w>
7363616e64
726567756c6174696f6e</w>
6c6567616379</w>
7665746572616e</w>
43696e656d61</w>
646966666963756c74696573</w>
70756c6c6564</w>
4d696e64</w>
6f756e</w>
50616c657374696e65</w>
6c6565</w>
6d7564</w>
6665656c696e6773</w>
74757262
646f6773</w>
d183
7661726961626c65</w>
7065726d616e656e746c79</w>
4d616e75666163
46726f6e
50696374757265</w>
626173696e</w>
617965</w>
72696f74</w>
61646479</w>
666169726c79</w>
696b69</w>
6163746c79</w>
696e6765</w>
c3a96e
766f6c6c657962616c6c</w>
626f79
46616e74617379</w>
41726d73</w>
486f6c6d6573</w>
68656164696e67</w>
436974
4c656674</w>
61636164656d79</w>
537573736578</w>
4c6567656e64</w>
657369</w>
626f6d62696e67</w>
6c696d696e
656e7375
4553504e</w>
4d696e6e65
646563696465</w>
48617264
416d617a6f6e</w>
c3a173</w>
486964
4368616972</w>
636f6d6d656e74617279</w>
6d617267696e</w>
31383338</w>
656469746f7273</w>
6c656769736c6174697665</w>
4272757373
616e69
50616e64
536d69
636f6d70617269736f6e</w>
4d65726974</w>
756e67
50617373</w>
31383330</w>
736c6f776c79</w>
5068</w>
50656e6775
53656c66</w>
676c6163
636f7570</w>
6472696e6b</w>
576964
31383132</w>
6578616374</w>
686973746f726963616c6c79</w>
726961676573</w>
436f6d6d65726369616c</w>
726566657272696e67</w>
72657369676e6174696f6e</w>
4d656d70
61746172</w>
54616e7a
313430</w>
4e696e74
61646d696e69737465726564</w>
6573747279</w>
73796e64726f6d65</w>
43617069746f6c</w>
6d6f6e74686c79</w>
446976697369c3b36e</w>
42726f6e7a65</w>
43757374
636f6e74726f6c73</w>
416e746172
5265747269
4f6c64
53616e746961676f</w>
6c6f61646564</w>
666c6573</w>
5468656f7279</w>
6174656d
73636174
77726f6e67</w>
42726f73</w>
6576656c74</w>
656e747265
4f7468657273</w>
62726564</w>
636f6c6c61707365</w>
7072696e74696e67</w>
63726974
5765646e
4f76657276696577</w>
31383339</w>
7265636f6d6d656e64
617574686f72697a6564</w>
6f726f</w>
45737461626c
4372696d65</w>
666561
696e736572
436c61756465</w>
4368696c65616e</w>
53686970
73706563696d656e73</w>
70726f6772616d6d6573</w>
65736f6e</w>
656e7468757369
6564696e6773</w>
7069746368657273</w>
53696d70736f6e</w>
427279616e</w>
536f6e73</w>
54657374
69676e6f72
4d656d70686973</w>
656e656d696573</w>
73686f7473</w>
69626e</w>
506c616e6574</w>
4844</w>
65726d616e</w>
4d6f6d
6f7262
4d696368656c</w>
616d696e65</w>
6f6b6f</w>
31383433</w>
c4b1</w>
4841</w>
706c6173746963</w>
31383432</w>
4c696e6461</w>
546f77
61746976
616e6965</w>
4e696b6f6c
6361746368</w>
70726573656e746572</w>
69616e6f</w>
416e696d616c</w>
636f70706572</w>
756d62656e74</w>
776f7273686970</w>
476962736f6e</w>
666972696e67</w>
6c61796f7574</w>
4d6172696e
64656c61796564</w>
494c</w>
677561726473</w>
4d616c6c
4564676172</w>
4d757374
436f77626f7973</w>
7468616c
57656e64
d0b4
646966666963756c7479</w>
766f74657273</w>
495543
45706973636f70616c</w>
656e74696e65</w>
4368656c736561</w>
456666
646973636f76657273</w>
31383030</w>
726f64
6964697479</w>
6c6573746f6e</w>
6d657265</w>
54616e67
6d696e6973747279</w>
70686162
7265666c656374</w>
57696e6e697065
5a696d626162
4d616e696c61</w>
6a6f696e73</w>
62617473</w>
547972
456e67696e65657273</w>
6e6172726174697665</w>
66696c6573</w>
436f78</w>
4e696e74656e646f</w>
72656d6f76616c</w>
7475617279</w>
736b6972
6469736173746572</w>
746872696c6c6572</w>
7469636b6574</w>
62696f6c6f6779</w>
75706461746564</w>
4242
436875636b</w>
70726f6f66</w>
43617270
6365737465727368697265</w>
6d65617375726564</w>
4665726e616e646f</w>
68616d6c6574</w>
6e61
70726f7465737473</w>
436f7061</w>
70617274696369706174696e67</w>
666f6f74616765</w>
73776f727468</w>
6168616e</w>
70726f6d69736564</w>
53706f
526f6f736576656c74</w>
66666363</w>
466f72756d</w>
636366666363</w>
68617573656e</w>
4b696e6773746f6e</w>
57696e6e69706567</w>
636f6e7374697475656e63696573</w>
6269616e</w>
686f73706974616c73</w>
6368616c6c656e676573</w>
737570706c696564</w>
69746973</w>
636f6f7065726174696f6e</w>
64676564</w>
6d6164
706c696e67</w>
72656469
72656e6f776e6564</w>
6f776c</w>
4361746567
766172696174696f6e</w>
69747573</w>
3430
6265616d</w>
c3bc6c
4d696c6573</w>
6272657669
6c667269656e64</w>
73757370656e73696f6e</w>
69676e6d656e74</w>
4368656e</w>
636176616c7279</w>
4a6f79
53706c
50616c657374696e69616e</w>
696e737069726174696f6e</w>
6162756e64
436f6e63657274</w>
6f6365616e</w>
7374727563747572616c</w>
51756172746572
6661766f72697465</w>
5068696c6c696573</w>
6a6574</w>
66617465</w>
56616e64
6163637572617465</w>
4c6970
656e726f6c6c6564</w>
54616c6c
666f726d756c61</w>
4a656e6e69666572</w>
696e7374616c6c6174696f6e</w>
676f616c6b6565706572</w>
467261736572</w>
6578706c616e
636f6d656469616e</w>
746976656c79</w>
4d696e6e6561706f6c6973</w>
4368616e6765</w>
7a6967</w>
c5a1</w>
436c69
6472616d61746963</w>
616e63686f72</w>
61696e61626c65</w>
447564
726563616c6c6564</w>
64656e6c79</w>
5265636f7264
6d617374
617070726f6163686573</w>
74617267657473</w>
4b656e6e79</w>
6167726565</w>
3232
4661697468</w>
6f6f7468
756261</w>
4d6f6e74656e6567726f</w>
e4b8
697369</w>
47656e</w>
4e617468616e</w>
547269706c65</w>
616363656c
636c6179</w>
506844</w>
5345</w>
486f706b696e73</w>
457965</w>
61756572</w>
65726e697479</w>
70757473</w>
636974697a656e</w>
464646464646</w>
526f62657274736f6e</w>
6366
6163636f6d6d6f64617465</w>
486572616c64</w>
6f696473</w>
4955434e</w>
73696e</w>
507574
69747a6572</w>
656e73656e</w>
7a79
7761727269
526865
746573746564</w>
4c6561726e696e67</w>
6c697374696e6773</w>
44616c65</w>
4d616e6e
646179
74726167
4c6f636174696f6e</w>
726976616c73</w>
68616e646c65</w>
313037</w>
74696d626572</w>
7461636b6c6573</w>
ceb1</w>
66756e6374696f6e616c</w>
61747461636b696e67</w>
4272757373656c73</w>
7265647563696e67</w>
7369656765</w>
53616372616d
4b756c
6465736572
696d70726f76656d656e7473</w>
6f7578</w>
4c6578
4d616461676173
506f6b
7465616368</w>
65786869626974</w>
457567656e65</w>
527572616c</w>
506c616e6e696e67</w>
696e6961</w>
76696f75736c79</w>
73616c74</w>
426c6f6f6d
616666656374</w>
72656c6174696e67</w>
6a6577
656c69
434152</w>
72656d656d
7175616c696669636174696f6e</w>
4c7574686572616e</w>
76656e74</w>
636f6e73706972
4772616e6465</w>
697374726174696f6e</w>
556e69766572736974696573</w>
4672616e6b66757274</w>
62656172696e67</w>
736869</w>
4a756c6961</w>
537769
44616d</w>
6163686572</w>
46616e74
4354
4958</w>
313630</w>
4a616c
61636c6573</w>
726563727569746564</w>
726573747269616c</w>
6d69646669656c646572</w>
526f647269
7261646172</w>
4b6e6f77</w>
566c6164696d6972</w>
416d</w>
7065727370656374697665</w>
696d707269736f6e6564</w>
41647269
656d706c
747265</w>
766f79
67726964</w>
526f6c6c696e67</w>
4361726f6c</w>
726f76
696e6461</w>
61726167
67756974617269737473</w>
736861</w>
63686f727573</w>
4b6973
746f757269736d</w>
427574746572
766f6c756e7465657273</w>
4c696f6e</w>
4d696c746f6e</w>
627265</w>
746563686e6f6c6f67696573</w>
656d706861736973</w>
7069616e697374</w>
6f7368
657874656e6473</w>
6172746966696369616c</w>
696e74657273</w>
6172656e61</w>
7069636b73</w>
6b6e6565</w>
88</w>
7374726f</w>
7269666c65</w>
5361786f6e79</w>
656e636f6d70
43686576
6772617068696373</w>
52696368617264736f6e</w>
456c656374726f6e6963</w>
616d6d6564</w>
6f68</w>
72657373696e67</w>
707265646f6d696e616e746c79</w>
616c74</w>
617274776f726b</w>
7761736e</w>
7061726973686573</w>
4d616d
56616c6c
6a756467
54727565</w>
333530</w>
4d6f726f63636f</w>
73697474696e67</w>
74656e7468</w>
69746368656e</w>
756e616e696d
64697468</w>
70686f746f73</w>
636f7264</w>
5665746572
66696c6d696e67</w>
4d6f736573</w>
6172636861656f6c6f676963616c</w>
507265736279746572
70657273</w>
4b6172656e</w>
4c65736c6965</w>
537572726579</w>
4f52</w>
747269627574617279</w>
626f7267</w>
4d6f727269736f6e</w>
536f6c6469
656361</w>
6c69746572616c6c79</w>
747279
416e6472c3a9</w>
696679</w>
46656e
7369616e73</w>
746170
50726f706572
6d696c6b</w>
4c52</w>
64656d616e6473</w>
426c65
46657267
31383335</w>
61757265
73617469
6d696e69</w>
526562
63757473</w>
5265796e6f6c6473</w>
726563697069656e7473</w>
427572746f6e</w>
57617272696f7273</w>
4d6964</w>
6b616c
496e646578</w>
67696674</w>
706f737468756d
496e73696465</w>
636f6e73697374</w>
7265636569766572</w>
4869726f
726f6c6c696e67</w>
46616c636f6e
77617266617265</w>
6e616d656c79</w>
646f637472
776f7265</w>
6472696e6b696e67</w>
4d616d6d616c73</w>
656d707479</w>
64697374696e6374696f6e</w>
646566656e646564</w>
436c656d
5175617274
bb</w>
636f616c6974696f6e</w>
7468616e6b73</w>
656d61746963</w>
6661696c696e67</w>
6d6f6e6974
4d6172</w>
5368616d
67696f</w>
4865727a6567
76616e
496e64696573</w>
617272697665</w>
73747265616d73</w>
506c617a61</w>
73686f72746572</w>
636f6d706f736974696f6e73</w>
534f</w>
636f6d70657469746f7273</w>
736174</w>
4f6363
636f6e6675736564</w>
526973
6f7373696c</w>
656e7472657072656e
526167
74756265</w>
53656e61746f7273</w>
52616368656c</w>
696e73746974757465</w>
52656c6174696f6e73</w>
627970
536f6e6e
31383336</w>
6f6d6573</w>
6c696d696e617279</w>
6175746f6269
416476656e74757265</w>
636f756e7473</w>
706f696e74696e67</w>
656c697465</w>
627265617374</w>
4c61626f7261746f7279</w>
636f6c756d6e73</w>
47656d
4f726c616e64
736f70
6f74696e67</w>
42616c64
4d616461676173636172</w>
4d616c7461</w>
61746d6f737068657265</w>
636f6d706f756e64</w>
4372797374616c</w>
796c616e</w>
c3a472
617773</w>
65786163746c79</w>
7363756c70746f72</w>
41706f6c6c6f</w>
4349</w>
726174696e6773</w>
616261</w>
656e7a6f</w>
68656c69636f70746572</w>
666f756e64657273</w>
696d6d6967726174696f6e</w>
4b617368
5477696e</w>
616d6174696f6e</w>
3830
6e696e6773</w>
696e646f6f72</w>
477561726473</w>
6c69626572616c</w>
4b6164
616d6f756e7473</w>
537072696e676669656c64</w>
636f696e73</w>
4d69636b
666f
66616d65</w>
7361786f70686f6e65</w>
496d70
6d616e6970
657261746564</w>
6f626a656374697665</w>
717565656e</w>
726f74</w>
696d6572</w>
6163746976656c79</w>
506f72746572</w>
416d6261737361646f72</w>
4e65777370
6d656d6f
706f737473</w>
486172706572</w>
6d65746572</w>
4869746c6572</w>
636f6d706f756e6473</w>
43727573
416e74617263
646566656e646572</w>
746379</w>
4a756c69616e</w>
4e415341</w>
7265747269
6f6361
636f696e63
746970</w>
76696e796c</w>
42657468
4346
4552
617374726f6e6f6d
4772656174
526f6c6c</w>
416761696e7374</w>
506c796d6f757468</w>
706f7665727479</w>
486f726e
7375676172</w>
7975</w>
6e656172657374</w>
736f6e6777726974657273</w>
4c756379</w>
52616964657273</w>
e1b8
737065636966696564</w>
73796e646963
706c616e746564</w>
427269656e</w>
72656164657273</w>
576173</w>
6265617273</w>
6b696c6f6d6574
7265766965776564</w>
61636b6572</w>
737769746368</w>
4850</w>
766f69636573</w>
4e6f6d696e
636c6573696173
6c69676874
7265766976616c</w>
656e7469657468</w>
77696c6c696e67</w>
48756c
556e697665727365</w>
47c3b6
616d6d61</w>
61736b696e67</w>
486561647175617274657273</w>
617669616e</w>
53657474
736e6f77</w>
676f72
4552</w>
656e746c
47656f726769616e</w>
496e746572</w>
6e75
6d61696e73747265616d</w>
73706572
6e65696768626f72696e67</w>
6f7079</w>
466f726d6174696f6e</w>
4865727a65676f76696e61</w>
6772617373
4865726f</w>
53616c656d</w>
626572696e67</w>
5073657564
496c</w>
4d616c61797369616e</w>
426c6f636b</w>
66656564696e67</w>
476572616c64</w>
456d657267
556c73746572</w>
61706172746d656e7473</w>
4a616d6965</w>
617275</w>
626f6e64</w>
73696d756c74616e656f75736c79</w>
c89b
70726f6772657373697665</w>
4461746162617365</w>
636f6d707574657273</w>
756e697665727365</w>
5775</w>
636f6c6d</w>
4265747479</w>
576879</w>
4149</w>
4261726f717565</w>
537069
616e656f7573</w>
6d6f6c6563756c6172</w>
6761746573</w>
7365656d6564</w>
457468696f706961</w>
5075626c697368657273</w>
c48c
62617474696e67</w>
696d706f737369626c65</w>
69666572
48616d62757267</w>
646f6c6c617273</w>
636f6e73756d7074696f6e</w>
436f6e74696e656e74616c</w>
74656c6570686f6e65</w>
70726f636564757265</w>
5265636f7264696e6773</w>
47616e64
44656c</w>
47756174656d
656666696369656e6379</w>
61756d</w>
636f6c6c61626f7261746564</w>
736d6f6f7468</w>
636f6c7370616e</w>
646565</w>
5348</w>
73656c656374</w>
427261646c6579</w>
7669</w>
6f636573
656174696e67</w>
70696e
4f6365
3439
76656765746174696f6e</w>
c39f65</w>
496e646967656e6f7573</w>
74687265617473</w>
6f6d6d756e6963
4469616e61</w>
636f646573</w>
4346</w>
756e64657273746f6f64</w>
6d697373696c65</w>
70757474696e67</w>
67616e67
6967687479</w>
69636b6572</w>
8b</w>
7461786573</w>
636f6d707269736573</w>
526574726965766564</w>
64656164
7265736f7274</w>
476c656e6e</w>
7468656f72696573</w>
4772656e
7a6f
4265766572
6c6567616c6c79</w>
6f6d6f727068
6672616d65776f726b</w>
4d756b
45796573</w>
66656174</w>
566172696f7573</w>
4d4c</w>
6368696174
4d616c636f6c6d</w>
756e64657277656e74</w>
636974696e67</w>
6173736573736d656e74</w>
696e646570656e64
436564
736964696e67</w>
636f6e76696e636564</w>
6f6d65747279</w>
52616e6479</w>
4d6964646c6573
4f726c616e646f</w>
6f676e65</w>
4672616e636f</w>
66616c6c656e</w>
61667465726e6f6f6e</w>
75726572</w>
566f6976
487572726963616e65</w>
48656e7269</w>
756775</w>
6869676877617973</w>
54616c6b</w>
696e6761</w>
6973696e65</w>
6469706c6f6d61746963</w>
626c6963616c</w>
626565</w>
5370656564</w>
736f63696574696573</w>
6465726976
676170</w>
69746e657373</w>
446973747269637473</w>
74656e646572</w>
4768616e61</w>
4272696768746f6e</w>
4368757263686573</w>
41626f726967696e616c</w>
636f63
74726176656c696e67</w>
706c61746573</w>
5261696c77617973</w>
c599
6576656e7475616c</w>
4865726e
696e746567726174696f6e</w>
446973636f76657279</w>
666f727479</w>
616e6e6578
676f74
6d616e61676573</w>
46726564
4772616d6d6172</w>
4372696d696e616c</w>
646566656e64696e67</w>
68656972</w>
64657461696c</w>
696e66656374696f6e</w>
7573747261746564</w>
656c696e</w>
46657264696e
4d616c6c</w>
436875726368
626174746564</w>
4c6f6361746564</w>
457374617465</w>
506f656d73</w>
616d62657273</w>
6b657973</w>
686c
636f6e747269627574696e67</w>
48616c69666178</w>
42617661726961</w>
636166
6665656c696e67</w>
436c79
6f796c65</w>
7769646f77</w>
74656c</w>
656c65636f6d6d756e6963
636f636b</w>
3237
4e75636c656172</w>
62696c697479</w>
4d6170</w>
70726f746f74797065</w>
48617373
696e707574</w>
6465726e657373</w>
416c706861</w>
6173736f63696174696f6e73</w>
456c6c696f7474</w>
696c657273</w>
4d696e65</w>
65737365</w>
4d657473</w>
647265616d</w>
68616c66
73746f6c656e</w>
64656e6f6d696e
76696577696e67</w>
6c656769736c6174757265</w>
bf</w>
81</w>
666c6578
616363756d
63617375616c74696573</w>
476176
73656374</w>
436f6c</w>
5661
7061796d656e74</w>
696c6961</w>
7869
4352
48617665</w>
4a756c6965</w>
696d70726f76656d656e74</w>
6d61696e6c616e64</w>
6b6d32</w>
6e65696768626f7572696e67</w>
7669727475616c</w>
696e6768616d
4c6974
627574746572
74616c6b73</w>
7761726d</w>
52696361</w>
656761</w>
616e74756d</w>
726573656d626c
70726f707269
697363616c</w>
4b6f74
636865636b</w>
707573686564</w>
417273656e616c</w>
6c6473</w>
4d6172696e6573</w>
546f6e67
696e6469636174696e67</w>
636f6d6d656e7473</w>
77617273</w>
616e74696e
746f77657273</w>
536574</w>
cf84
736b696e73</w>
746572696573</w>
68696573</w>
6c6f63616c697479</w>
4569676874</w>
6e6f697365</w>
6d6172696e6573</w>
64657373</w>
63617073</w>
737a
70616c65</w>
6469736f72646572</w>
677265656e
6f70657261746f7273</w>
65766573</w>
646566756e6374</w>
6566756c6c79</w>
5468696e6773</w>
7472616e736974</w>
6968
61726368697465637473</w>
61776172656e657373</w>
736369656e636573</w>
696e737472756374696f6e</w>
6163636573736564</w>
696e74656e64656e74</w>
616c746863617265</w>
63656c6562726174696f6e</w>
736964657273</w>
4d63446f6e616c64</w>
48616e73
6e6172726f77
4361726c6f</w>
436f6d6d756e6573</w>
41646d696e697374726174697665</w>
4c696265726174696f6e</w>
57696e64736f72</w>
616e63657273</w>
6f736573</w>
61616e</w>
656d70697265</w>
737465</w>
4750</w>
656c61626f72
636f6e737472756374</w>
7068696c6f736f70686572</w>
7374656e</w>
7472757374656573</w>
42617468</w>
73656e64696e67</w>
6669667479</w>
4449</w>
6d696c6974
6b696e736f6e</w>
6b696c6c6572</w>
5072696e636970616c</w>
4e4154
726573706f6e64</w>
736d697468</w>
726f73746572</w>
647562626564</w>
446572656b</w>
626c75
48616b
5752</w>
636f6c6f6e696573</w>
4950
4368617365</w>
e0ae
426f6c69766961</w>
6c657973</w>
4e657665727468656c657373</w>
436f6c6f6d6269616e</w>
64726f7665</w>
686f6c69646179</w>
536c69
656372616674</w>
7265667567656573</w>
4b696473</w>
636f6d666f72
456d696c79</w>
4b616e6e
c59b
484d53</w>
736563726574
63686f</w>
4578616d706c6573</w>
4d656d
73646179</w>
4a6f656c</w>
6d65747265</w>
4d6343
62696c6c6564</w>
76616c7561626c65</w>
4461</w>
696e6173</w>
a1</w>
657870656374
6f69646573</w>
6578616d696e6174696f6e</w>
616c69616e73</w>
64696574</w>
4a657373
4c6173
4b6579
62616c6c73</w>
416c62616e79</w>
416c62616e69616e</w>
416264756c</w>
486175
4669667468</w>
54726f75
636f6d70617469
70726570
7468656174726963616c</w>
6d61696e7461696e696e67</w>
796573</w>
696669636174696f6e</w>
62656c6f6e67</w>
757261746564</w>
63726166
65696e</w>
50c3a9
65706c79</w>
486f6f
4361726f6c696e65</w>
65737461</w>
6368617074657273</w>
63686572
616e746573</w>
68616e646c696e67</w>
416265726465656e</w>
4b68616c
7374616e62756c</w>
776574</w>
424f</w>
736b696c6c</w>
62617468
44617465</w>
747a
726176
57696c6c6965</w>
636f6e747261637473</w>
466f756e
436172726f6c6c</w>
6577656c6c</w>
656767</w>
646576656c6f706d656e7473</w>
b1</w>
657a65</w>
4c796e6e</w>
4c616e636173746572</w>
4e61706c6573</w>
464249</w>
696e74656c6c65637475616c</w>
726f6164
706f70756c61746564</w>
6f646564</w>
68617276
546f6f</w>
576f6c766572
43616e796f6e</w>
436f6c6f6e69616c</w>
65706964
74726f75626c65</w>
526173
5175616c69
656e676167656d656e74</w>
61646f73</w>
46697368
44726f
6261726f6e
4164756c74</w>
4e69676874
707269736f6e6572</w>
74686572656279</w>
6f726c79</w>
6578706c61696e</w>
7368697070696e67</w>
5379726163
666c6f6f64</w>
7061726173
6c6971756964</w>
e0a5
4b617a616b68
6e6174696f6e616c6c79</w>
4754
6f6379
56656e65
6174756d</w>
70737963686f6c6f6779</w>
5377616e
4865726f6573</w>
7265766f6c7574696f6e</w>
4e69636f6c
6c6163
646973706c617973</w>
656d6f74696f6e616c</w>
4c6563
63756c74</w>
476f74</w>
6162737472
4c6f646765</w>
4c696e6573</w>
53636f7574</w>
717569636b</w>
4175746f6d
534d</w>
63726561746f72</w>
66726569676874</w>
666c79
636976696c69616e73</w>
686f6e6f757273</w>
436f6d706172
7265736f75726365</w>
44796c616e</w>
756c69</w>
4d6172636f</w>
6f6d69</w>
507972
5269636861726473</w>
726576657273
52756d
617370656374</w>
536167
4f7267616e697a6174696f6e73</w>
64657072657373696f6e</w>
417374726f
6c6974</w>
7469626c65</w>
65746573</w>
4265696e67</w>
7461
6769726c667269656e64</w>
75746572
696e746572616374696f6e</w>
66756e</w>
6c61626f7572</w>
4c657474657273</w>
65727570
537472616e
536861646f77</w>
6f7a61</w>
626f6c64</w>
72656c65676174696f6e</w>
66617374657374</w>
6f70656e73</w>
72616964</w>
5368696e
4945
6d697373696f6e617279</w>
6f6b696e67</w>
64616e63696e67</w>
6d6f746f726379636c65</w>
436f75727365</w>
4a657473</w>
70726976696c
636f6e6365707473</w>
73747265616b</w>
66616d696c696172</w>
67726164756174696f6e</w>
736f6e76696c6c65</w>
7468726f776e</w>
737469636b</w>
41647269616e</w>
4369746174696f6e73</w>
747269706c65</w>
5461736d616e6961</w>
6578706572696d656e7473</w>
656e7a61</w>
676f7665726e696e67</w>
4c6f75</w>
647261</w>
757461</w>
446966
6469616e73</w>
7365676d656e7473</w>
61646d696e6973747261746f72</w>
736d6f757468</w>
646966666572656e7469
52756c6573</w>
617070726563
31383135</w>
65786869626974696f6e73</w>
4e54
50687973696373</w>
617465646c79</w>
7068696c616e7468726f70
7369676e616c73</w>
68656172</w>
68696e
5379726163757365</w>
7265636570746f72</w>
4d6574616c</w>
69636b656e</w>
776572
7761726e696e67</w>
4e54</w>
7374656d</w>
636f7272757074696f6e</w>
7061636b616765</w>
636c6573696173746963616c</w>
636f66666565</w>
73746f726564</w>
7374616474</w>
31383334</w>
457665</w>
6575</w>
5975676f736c6176</w>
6f6e6e65</w>
616c6c61</w>
766974
5370617274
736d656e</w>
6469616c6f677565</w>
416d79</w>
4d6172696f6e</w>
4d6963726f
746869727465656e</w>
5a6f
63796c696e646572</w>
43616d626f
456d6d79</w>
506167
666564</w>
50617468
566f69766f64
6f766973696f6e</w>
6c6f636f6d6f74697665</w>
77697265</w>
637572726963756c756d</w>
706572666f726d657273</w>
7175697279</w>
64657374696e6174696f6e</w>
476179</w>
70726570617265</w>
6172646c657373</w>
70726f7068
6665727279</w>
616573
70726574
5472756d70</w>
48617264</w>
5761676e6572</w>
7761766573</w>
63726f776e6564</w>
6561626c65</w>
66696573</w>
72656d656d6265726564</w>
50617374
54686f726e
3630
68657264</w>
50726f746563746564</w>
61696c6572</w>
42756c6c</w>
6d616e75736372697074</w>
646573657274</w>
c481</w>
4d6568
7370656369616c697374</w>
636663</w>
6f616b</w>
47616e67
6861726477617265</w>
64696374
6f7961</w>
6f6c6b</w>
74616c6c
31383331</w>
627261
7375727669766f7273</w>
7969
63656e73
c4ab
6469766f72636564</w>
656e6e69756d</w>
436162696e6574</w>
62657279</w>
c490
4a6f</w>
4d6f6e726f65</w>
426f6e64</w>
756e697479</w>
6574696373</w>
42726164</w>
53616c7661646f72</w>
496e74656772
466f6f746e6f746573</w>
62656e6368</w>
6d657261</w>
63696e656d
546f776e7368697073</w>
696e746572657374696e67</w>
4947
73776f7264</w>
656e6c6973746564</w>
65786861
536b69</w>
4d6172746861</w>
486167
534d
53757065726d616e</w>
6861776b</w>
546f757269736d</w>
73686966746564</w>
67726179</w>
61786973</w>
536179
67656e6573</w>
6c696e657570</w>
7472696f</w>
636f6e73756d6572</w>
7475726572</w>
6164726f6e73</w>
6761746865726564</w>
466176
6161</w>
526f636b79</w>
766572737573</w>
796d6f6c6f6779</w>
72656c657373</w>
657874656e64696e67</w>
6e6f7365</w>
72756e776179</w>
7469676874</w>
7265737472696374696f6e73</w>
c3af
4c6f726473</w>
72656c617469766573</w>
4d756d62
506f7274736d6f757468</w>
6d697874757265</w>
4875676f</w>
4167726963756c747572616c</w>
616b75</w>
7375737461696e6564</w>
53756666
486f6e6f72617279</w>
64657374726f
746973737565</w>
6f6361757374</w>
64697363757373</w>
656c6c6174696f6e</w>
5370656564776179</w>
756e696e636f72706f7261746564</w>
53616e63
726f6f6b
766172696174696f6e73</w>
6c6561726e73</w>
7079</w>
446562
7469617279</w>
766f7573</w>
70757265</w>
5765646e6573646179</w>
656d626c6573</w>
436f6e73756c
736b6174696e67</w>
636f6d70726973696e67</w>
616973
736f766572
696665</w>
7472616e73706f72
7265766f6c7574696f6e617279</w>
57696d
6e75747269
4a6179
72656c6179</w>
5573696e67</w>
6572696f7573</w>
686f72697a6f6e74
6c656d
4275726e73</w>
43726974696373</w>
63756c7475726573</w>
726562656c6c696f6e</w>
696566</w>
71756572
696e746572636570
656c656374</w>
6e6974757265</w>
64696573656c</w>
636f7079
6a7564696369616c</w>
6f6a
4c6168
524341</w>
616e7468726f706f6c
68616972
6469736170706561726564</w>
436c6179</w>
c3a46e
706f73</w>
666c6f77
73746174696f6e6564</w>
53696e676572</w>
7072657365727665</w>
69676f</w>
4c7972
6272696e6773</w>
54616e67</w>
736f7574686561737465726e</w>
726576656e
73706f74746564</w>
477269666669
416e64726561</w>
5761746368</w>
706c756d
706570
6173616e74</w>
617061</w>
636f6e64756374696e67</w>
4861776b73</w>
73747265746368</w>
72696674</w>
8c</w>
68746d6c</w>
6578706572696d656e74</w>
616b68</w>
6f76616e</w>
61626272657669
666262</w>
62696b65</w>
7869</w>
4a6f686e73</w>
457863656c6c
6f6c617465</w>
4573746f6e69616e</w>
496e746572696f72</w>
616368696576656d656e7473</w>
6861726d6f6e6963</w>
766172696564</w>
72657665727365</w>
4d616b65</w>
4c756d
63696e
526966
77697368</w>
76617269616e7473</w>
79616e61</w>
6d656e74696f6e73</w>
4a6572656d79</w>
4c7574
73657276616e74</w>
6661726d73</w>
c5826177</w>
446572</w>
73756363657373696f6e</w>
5468756e646572</w>
61706172
4e65696c6c</w>
616e7a
64696d656e73696f6e616c</w>
4261726e6573</w>
6169726c696e65</w>
566f69766f646573686970</w>
6368616c6c656e676564</w>
466174
616c6c656765646c79</w>
4c656164
43617272
70726573656e746174696f6e</w>
4e6577666f756e64
557365</w>
80</w>
4d6f6e7465</w>
31353030</w>
637565</w>
6c657474</w>
616c697a65</w>
6172616e</w>
6c61626f7261746f7279</w>
72656e6f766174696f6e</w>
46696a69</w>
656e647261</w>
6d61727368
636f6c6f6e656c</w>
616d6572
6d6f646572617465</w>
4d6563
7570677261646564</w>
4c6576656c</w>
736574
666173746572</w>
656f72
e183
313038</w>
54726962
63726173686564</w>
70726f66657373696f6e616c73</w>
4772656174657374</w>
73746174656d656e7473</w>
6469736372696d696e6174696f6e</w>
73757272656e646572</w>
446f726f746879</w>
656d706c6f796565</w>
537465696e
726576656e6765</w>
6578696c65</w>
43726f73
4575726f</w>
6665776572</w>
4368657373</w>
4575726f766973696f6e</w>
726571756972696e67</w>
7072696e7473</w>
547261636b73</w>
636c6f7468
45646d756e64</w>
4e6f7474696e6768616d</w>
5374616e</w>
636f6c6f726564</w>
5265666572656e6365</w>
46616365</w>
57616e646572
6f636f6c</w>
696e76656e746564</w>
507265736964656e7473</w>
617267756573</w>
626572676572</w>
636f6c6c656167756573</w>
456b
667269656e6473686970</w>
5374616b6573</w>
4461776e</w>
6c69666574696d65</w>
42617272
676966
61747472616374696f6e</w>
7368617270</w>
57c3bc72
6265636b</w>
746f726e
7365766572656c79</w>
74696c69
67656e6572616c73</w>
64616e636572</w>
6c617073</w>
53686177
d0bc
656e6368
45766f6c
6369</w>
6d6972</w>
616d6261737361646f72</w>
456469746f72</w>
73686f756c646572</w>
4d7572646572</w>
6b656c</w>
7275696e73</w>
4f72</w>
4c696e6b</w>
57796f6d696e67</w>
696e7465726d656469617465</w>
484956</w>
5265766976616c</w>
70726f63656475726573</w>
7265736572766573</w>
696769</w>
7375727072697365</w>
6d757264657273</w>
756e6465726772616475617465</w>
4d657263757279</w>
416d657269636173</w>
4952
5665686963
5356</w>
5748
656e686167656e</w>
436f726e656c6c</w>
666f6c64</w>
6f6374
616c616d</w>
4e6577666f756e646c616e64</w>
4d6564696576616c</w>
73656e736974697665</w>
a8</w>
73706563696d656e</w>
6368657a</w>
616468
50726573627974657269616e</w>
5265637265
6d616d6d616c73</w>
6469616c656374</w>
466163746f7279</w>
536f75746877657374</w>
5772
6c617773756974</w>
6465616c696e67</w>
696e74656e
53797269616e</w>
556e696e636f72706f7261746564</w>
6573746f</w>
6d7974686f6c6f6779</w>
70726f7461676f6e697374</w>
6265686176696f7572</w>
657868696269746564</w>
4f68</w>
62657374
7265616c697a6564</w>
4e656d
536578</w>
696465616c</w>
616c7465726564</w>
50616c6c
66726573687761746572</w>
7472616e73666f726d6564</w>
53c3a9
626973
73776179</w>
4573746f6e6961</w>
554643</w>
43696e
656e7a6965</w>
6865726f6573</w>
63616c69
42686172
54616e7a616e6961</w>
4e6f72746f6e</w>
62617373697374</w>
67726f</w>
70726576656e746564</w>
6d6174726978</w>
696e74657266616365</w>
72656d61726b
706c6179777269676874</w>
5265666f726d</w>
697a61</w>
62616368656c6f72</w>
696d706f736564</w>
566f72
6c656d656e74</w>
6f7175
736974756174696f6e73</w>
696e697374</w>
656e64696e6773</w>
616e64726f</w>
617374696e67</w>
417264
486967686c616e64</w>
6173736564</w>
61746869</w>
656e67616765</w>
6d61696e7461696e73</w>
6b6974</w>
5363616e64
50726f766964656e6365</w>
6c657a</w>
537564616e</w>
696e63756d62656e74</w>
4b72697374
6b657474</w>
4d756d626169</w>
56697274
6e69636b6e616d6564</w>
61736973</w>
706572636569766564</w>
7472616e736d6974746572</w>
43656c656272
75626572
52656964</w>
68697474696e67</w>
666f75727465656e</w>
696e74657276656e
7061696e74</w>
7363696f7573</w>
65617274687175616b65</w>
6170706c6963
536973746572</w>
7261646963616c</w>
526563656e74</w>
7265666f726d73</w>
6173736973</w>
64656c69626572
6f6b6573</w>
636f6c6f757273</w>
656c6f6e67</w>
53656d696e617279</w>
616d70697265</w>
4c6166
4a65737365</w>
496e76657374
696d707269736f6e6d656e74</w>
61657269616c</w>
61717565</w>
687970
726164696174696f6e</w>
4d69786564</w>
616c6965</w>
656c6c6573</w>
6c6567656e64617279</w>
4c657373
506879736963616c</w>
c3a96e</w>
70756e6973686d656e74</w>
476c6f6265</w>
c5bd
57696e7374
67656172</w>
6469766f726365</w>
646973727570
616c79</w>
31383333</w>
416374
636974697a656e73686970</w>
766f6c756e74656572</w>
706f6c6c</w>
656e61626c65</w>
7472616e736c61746f72</w>
5444</w>
6570616765</w>
4275726b65</w>
48697370616e6963</w>
50756e6a6162</w>
56616c65</w>
62757269616c</w>
65616c</w>
696e74656e7365</w>
5a68616e67</w>
4d617468656d6174696373</w>
7074696f6e73</w>
c58c
6d7573636c65</w>
62656c69656673</w>
66756e64616d656e74616c</w>
63756c6d696e
6164657175617465</w>
77796e</w>
7265736375
7465727269746f7269616c</w>
616d79</w>
49424d</w>
7375706572</w>
6b616e
4c6f67616e</w>
666f637573696e67</w>
616d6261</w>
4472756d
707265676e616e74</w>
4e6967657269616e</w>
6e697468
52c3a9
313039</w>
6d797374657279</w>
46657264696e616e64</w>
486f6f64</w>
41494453</w>
696e766573746967617465</w>
737573706563746564</w>
776f6f6473</w>
6f787967656e</w>
61746572616c</w>
4b65727279</w>
7068656e6f6d656e
466c696e
697073</w>
55535352</w>
696e646570656e64656e746c79</w>
616e6564</w>
4753</w>
4c696768
63686563
697065</w>
4775696c64</w>
737573706963
737461676564</w>
6e6f74696365</w>
616368696576656d656e74</w>
57616c6b</w>
50616c6d</w>
646164</w>
436f68656e</w>
63686f7265
62757368
4e67
5344</w>
616e69737473</w>
50657266
536163726564</w>
4d696e697374657273</w>
70726f6e6f756e636564</w>
4f66666963657273</w>
7a686f75</w>
6e6173
4b6964</w>
46756b
4d6f75
42657267
495456</w>
626f786572</w>
676f7665726e6564</w>
696d7072657373697665</w>
456c6c656e</w>
67796d6e6173
4f52
637573746f6d</w>
424345</w>
7072656d
66c3bc
426f6479</w>
61746572
53747265657473</w>
486f6c6f6361757374</w>
6d61726b696e67</w>
566973696f6e</w>
48616c66</w>
717561727465726564</w>
456d657267656e6379</w>
4a6f686e73746f6e</w>
6e65696768626f7572686f6f64</w>
5477696e73</w>
44697363</w>
4e617373
72657065617465646c79</w>
6f63636173696f6e616c</w>
6e6f7274686561737465726e</w>
5468656f646f7265</w>
[...]
